#include "magic_wand_model_data.h"

// We need to keep the data array aligned on some architectures.
#ifdef __has_attribute
#define HAVE_ATTRIBUTE(x) __has_attribute(x)
#else
#define HAVE_ATTRIBUTE(x) 0
#endif
#if HAVE_ATTRIBUTE(aligned) || (defined(__GNUC__) && !defined(__clang__))
#define DATA_ALIGN_ATTRIBUTE __attribute__((aligned(4)))
#else
#define DATA_ALIGN_ATTRIBUTE
#endif

const unsigned char g_magic_wand_model_data[] DATA_ALIGN_ATTRIBUTE = {
  0x1c, 0x00, 0x00, 0x00, 0x54, 0x46, 0x4c, 0x33, 0x14, 0x00, 0x20, 0x00,
  0x04, 0x00, 0x08, 0x00, 0x0c, 0x00, 0x10, 0x00, 0x14, 0x00, 0x00, 0x00,
  0x18, 0x00, 0x1c, 0x00, 0x14, 0x00, 0x00, 0x00, 0x03, 0x00, 0x00, 0x00,
  0x18, 0x00, 0x00, 0x00, 0x2c, 0x00, 0x00, 0x00, 0xd8, 0x00, 0x00, 0x00,
  0x2c, 0x00, 0x00, 0x00, 0x80, 0x00, 0x00, 0x00, 0x78, 0x00, 0x00, 0x00,
  0x05, 0x00, 0x00, 0x00, 0x28, 0x07, 0x00, 0x00, 0x44, 0x06, 0x00, 0x00,
  0xbc, 0x03, 0x00, 0x00, 0xf8, 0x02, 0x00, 0x00, 0xac, 0x01, 0x00, 0x00,
  0x01, 0x00, 0x00, 0x00, 0xd0, 0x00, 0x00, 0x00, 0x14, 0x00, 0x00, 0x00,
  0xdc, 0x32, 0x00, 0x00, 0xd8, 0x32, 0x00, 0x00, 0xd0, 0x31, 0x00, 0x00,
  0x1c, 0x31, 0x00, 0x00, 0x74, 0x30, 0x00, 0x00, 0xfc, 0x2f, 0x00, 0x00,
  0x90, 0x2f, 0x00, 0x00, 0x40, 0x13, 0x00, 0x00, 0xec, 0x11, 0x00, 0x00,
  0x10, 0x10, 0x00, 0x00, 0xb4, 0x07, 0x00, 0x00, 0xb0, 0x32, 0x00, 0x00,
  0xac, 0x32, 0x00, 0x00, 0xa8, 0x32, 0x00, 0x00, 0xa4, 0x32, 0x00, 0x00,
  0xa0, 0x32, 0x00, 0x00, 0x9c, 0x32, 0x00, 0x00, 0x98, 0x32, 0x00, 0x00,
  0x94, 0x32, 0x00, 0x00, 0x3c, 0x00, 0x00, 0x00, 0x00, 0x00, 0x00, 0x00,
  0x01, 0x00, 0x00, 0x00, 0x0c, 0x00, 0x00, 0x00, 0x08, 0x00, 0x0c, 0x00,
  0x04, 0x00, 0x08, 0x00, 0x08, 0x00, 0x00, 0x00, 0x08, 0x00, 0x00, 0x00,
  0x13, 0x00, 0x00, 0x00, 0x13, 0x00, 0x00, 0x00, 0x6d, 0x69, 0x6e, 0x5f,
  0x72, 0x75, 0x6e, 0x74, 0x69, 0x6d, 0x65, 0x5f, 0x76, 0x65, 0x72, 0x73,
  0x69, 0x6f, 0x6e, 0x00, 0xb6, 0xce, 0xff, 0xff, 0x04, 0x00, 0x00, 0x00,
  0x10, 0x00, 0x00, 0x00, 0x31, 0x2e, 0x35, 0x2e, 0x30, 0x00, 0x00, 0x00,
  0x00, 0x00, 0x00, 0x00, 0x00, 0x00, 0x00, 0x00, 0x0f, 0x00, 0x00, 0x00,
  0x4d, 0x4c, 0x49, 0x52, 0x20, 0x43, 0x6f, 0x6e, 0x76, 0x65, 0x72, 0x74,
  0x65, 0x64, 0x2e, 0x00, 0x00, 0x00, 0x0e, 0x00, 0x18, 0x00, 0x04, 0x00,
  0x08, 0x00, 0x0c, 0x00, 0x10, 0x00, 0x14, 0x00, 0x0e, 0x00, 0x00, 0x00,
  0x14, 0x00, 0x00, 0x00, 0x5c, 0x00, 0x00, 0x00, 0x60, 0x00, 0x00, 0x00,
  0x64, 0x00, 0x00, 0x00, 0x84, 0x00, 0x00, 0x00, 0x12, 0x00, 0x00, 0x00,
  0x9c, 0x31, 0x00, 0x00, 0x2c, 0x31, 0x00, 0x00, 0x88, 0x30, 0x00, 0x00,
  0xe0, 0x2f, 0x00, 0x00, 0x38, 0x2f, 0x00, 0x00, 0xd4, 0x2e, 0x00, 0x00,
  0x6c, 0x2e, 0x00, 0x00, 0x18, 0x12, 0x00, 0x00, 0xbc, 0x10, 0x00, 0x00,
  0xe0, 0x0e, 0x00, 0x00, 0x0c, 0x06, 0x00, 0x00, 0x28, 0x05, 0x00, 0x00,
  0xe8, 0x03, 0x00, 0x00, 0x3c, 0x03, 0x00, 0x00, 0x98, 0x02, 0x00, 0x00,
  0xd4, 0x01, 0x00, 0x00, 0x10, 0x01, 0x00, 0x00, 0x84, 0x00, 0x00, 0x00,
  0x01, 0x00, 0x00, 0x00, 0x00, 0x00, 0x00, 0x00, 0x01, 0x00, 0x00, 0x00,
  0x11, 0x00, 0x00, 0x00, 0x08, 0x00, 0x00, 0x00, 0x74, 0x05, 0x00, 0x00,
  0x94, 0x04, 0x00, 0x00, 0x78, 0x03, 0x00, 0x00, 0xbc, 0x02, 0x00, 0x00,
  0x30, 0x02, 0x00, 0x00, 0x50, 0x01, 0x00, 0x00, 0xa8, 0x00, 0x00, 0x00,
  0x10, 0x00, 0x00, 0x00, 0x04, 0x00, 0x00, 0x00, 0x6d, 0x61, 0x69, 0x6e,
  0x00, 0x00, 0x00, 0x00, 0x7a, 0xff, 0xff, 0xff, 0x00, 0x00, 0x00, 0x09,
  0x04, 0x00, 0x00, 0x00, 0x1c, 0x00, 0x00, 0x00, 0x10, 0x00, 0x00, 0x00,
  0x04, 0x00, 0x00, 0x00, 0xb2, 0xcf, 0xff, 0xff, 0x00, 0x00, 0x80, 0x3f,
  0x01, 0x00, 0x00, 0x00, 0x11, 0x00, 0x00, 0x00, 0x01, 0x00, 0x00, 0x00,
  0x10, 0x00, 0x00, 0x00, 0xa0, 0xfa, 0xff, 0xff, 0x19, 0x00, 0x00, 0x00,
  0x00, 0x00, 0x00, 0x19, 0x01, 0x00, 0x00, 0x00, 0x40, 0xcf, 0xff, 0xff,
  0x14, 0x00, 0x00, 0x00, 0x12, 0x00, 0x00, 0x00, 0x18, 0x00, 0x00, 0x00,
  0x30, 0x00, 0x00, 0x00, 0x20, 0x00, 0x00, 0x00, 0x02, 0x00, 0x00, 0x00,
  0x01, 0x00, 0x00, 0x00, 0x04, 0x00, 0x00, 0x00, 0x08, 0x00, 0x00, 0x00,
  0x49, 0x64, 0x65, 0x6e, 0x74, 0x69, 0x74, 0x79, 0x00, 0x00, 0x00, 0x00,
  0x02, 0x00, 0x00, 0x00, 0xff, 0xff, 0xff, 0xff, 0x04, 0x00, 0x00, 0x00,
  0x24, 0xd0, 0xff, 0xff, 0x00, 0x00, 0x0e, 0x00, 0x18, 0x00, 0x08, 0x00,
  0x0c, 0x00, 0x10, 0x00, 0x07, 0x00, 0x14, 0x00, 0x0e, 0x00, 0x00, 0x00,
  0x00, 0x00, 0x00, 0x08, 0x03, 0x00, 0x00, 0x00, 0x18, 0x00, 0x00, 0x00,
  0x0c, 0x00, 0x00, 0x00, 0x04, 0x00, 0x00, 0x00, 0x40, 0xcf, 0xff, 0xff,
  0x01, 0x00, 0x00, 0x00, 0x10, 0x00, 0x00, 0x00, 0x03, 0x00, 0x00, 0x00,
  0x0f, 0x00, 0x00, 0x00, 0x07, 0x00, 0x00, 0x00, 0x04, 0x00, 0x00, 0x00,
  0xc8, 0xcf, 0xff, 0xff, 0x14, 0x00, 0x00, 0x00, 0x11, 0x00, 0x00, 0x00,
  0x18, 0x00, 0x00, 0x00, 0x5c, 0x00, 0x00, 0x00, 0x4c, 0x00, 0x00, 0x00,
  0x02, 0x00, 0x00, 0x00, 0x01, 0x00, 0x00, 0x00, 0x04, 0x00, 0x00, 0x00,
  0x34, 0x00, 0x00, 0x00, 0x73, 0x65, 0x71, 0x75, 0x65, 0x6e, 0x74, 0x69,
  0x61, 0x6c, 0x2f, 0x64, 0x65, 0x6e, 0x73, 0x65, 0x5f, 0x31, 0x2f, 0x4d,
  0x61, 0x74, 0x4d, 0x75, 0x6c, 0x3b, 0x73, 0x65, 0x71, 0x75, 0x65, 0x6e,
  0x74, 0x69, 0x61, 0x6c, 0x2f, 0x64, 0x65, 0x6e, 0x73, 0x65, 0x5f, 0x31,
  0x2f, 0x42, 0x69, 0x61, 0x73, 0x41, 0x64, 0x64, 0x00, 0x00, 0x00, 0x00,
  0x02, 0x00, 0x00, 0x00, 0xff, 0xff, 0xff, 0xff, 0x04, 0x00, 0x00, 0x00,
  0xc8, 0xcf, 0xff, 0xff, 0xda, 0xfc, 0xff, 0xff, 0x00, 0x00, 0x00, 0x08,
  0x03, 0x00, 0x00, 0x00, 0x24, 0x00, 0x00, 0x00, 0x18, 0x00, 0x00, 0x00,
  0x0c, 0x00, 0x00, 0x00, 0x00, 0x00, 0x06, 0x00, 0x08, 0x00, 0x07, 0x00,
  0x06, 0x00, 0x00, 0x00, 0x00, 0x00, 0x00, 0x01, 0x01, 0x00, 0x00, 0x00,
  0x0f, 0x00, 0x00, 0x00, 0x03, 0x00, 0x00, 0x00, 0x0e, 0x00, 0x00, 0x00,
  0x06, 0x00, 0x00, 0x00, 0x03, 0x00, 0x00, 0x00, 0xe8, 0xfb, 0xff, 0xff,
  0x09, 0x00, 0x00, 0x00, 0x00, 0x00, 0x00, 0x09, 0x01, 0x00, 0x00, 0x00,
  0x88, 0xd0, 0xff, 0xff, 0x14, 0x00, 0x00, 0x00, 0x10, 0x00, 0x00, 0x00,
  0x18, 0x00, 0x00, 0x00, 0x6c, 0x00, 0x00, 0x00, 0x5c, 0x00, 0x00, 0x00,
  0x02, 0x00, 0x00, 0x00, 0x01, 0x00, 0x00, 0x00, 0x10, 0x00, 0x00, 0x00,
  0x46, 0x00, 0x00, 0x00, 0x73, 0x65, 0x71, 0x75, 0x65, 0x6e, 0x74, 0x69,
  0x61, 0x6c, 0x2f, 0x64, 0x65, 0x6e, 0x73, 0x65, 0x2f, 0x4d, 0x61, 0x74,
  0x4d, 0x75, 0x6c, 0x3b, 0x73, 0x65, 0x71, 0x75, 0x65, 0x6e, 0x74, 0x69,
  0x61, 0x6c, 0x2f, 0x64, 0x65, 0x6e, 0x73, 0x65, 0x2f, 0x52, 0x65, 0x6c,
  0x75, 0x3b, 0x73, 0x65, 0x71, 0x75, 0x65, 0x6e, 0x74, 0x69, 0x61, 0x6c,
  0x2f, 0x64, 0x65, 0x6e, 0x73, 0x65, 0x2f, 0x42, 0x69, 0x61, 0x73, 0x41,
  0x64, 0x64, 0x00, 0x00, 0x02, 0x00, 0x00, 0x00, 0xff, 0xff, 0xff, 0xff,
  0x10, 0x00, 0x00, 0x00, 0xa8, 0xd1, 0xff, 0xff, 0x00, 0x00, 0x0a, 0x00,
  0x10, 0x00, 0x04, 0x00, 0x08, 0x00, 0x0c, 0x00, 0x0a, 0x00, 0x00, 0x00,
  0x02, 0x00, 0x00, 0x00, 0x10, 0x00, 0x00, 0x00, 0x04, 0x00, 0x00, 0x00,
  0x01, 0x00, 0x00, 0x00, 0x0e, 0x00, 0x00, 0x00, 0x02, 0x00, 0x00, 0x00,
  0x0d, 0x00, 0x00, 0x00, 0x05, 0x00, 0x00, 0x00, 0xa8, 0xfc, 0xff, 0xff,
  0x16, 0x00, 0x00, 0x00, 0x00, 0x00, 0x00, 0x16, 0x01, 0x00, 0x00, 0x00,
  0x48, 0xd1, 0xff, 0xff, 0x14, 0x00, 0x00, 0x00, 0x0f, 0x00, 0x00, 0x00,
  0x18, 0x00, 0x00, 0x00, 0x40, 0x00, 0x00, 0x00, 0x30, 0x00, 0x00, 0x00,
  0x02, 0x00, 0x00, 0x00, 0x01, 0x00, 0x00, 0x00, 0x70, 0x00, 0x00, 0x00,
  0x1a, 0x00, 0x00, 0x00, 0x73, 0x65, 0x71, 0x75, 0x65, 0x6e, 0x74, 0x69,
  0x61, 0x6c, 0x2f, 0x66, 0x6c, 0x61, 0x74, 0x74, 0x65, 0x6e, 0x2f, 0x52,
  0x65, 0x73, 0x68, 0x61, 0x70, 0x65, 0x00, 0x00, 0x02, 0x00, 0x00, 0x00,
  0xff, 0xff, 0xff, 0xff, 0x70, 0x00, 0x00, 0x00, 0x2c, 0xd1, 0xff, 0xff,
  0x3e, 0xfe, 0xff, 0xff, 0x00, 0x00, 0x00, 0x05, 0x01, 0x00, 0x00, 0x00,
  0x38, 0x00, 0x00, 0x00, 0x2c, 0x00, 0x00, 0x00, 0x14, 0x00, 0x00, 0x00,
  0x00, 0x00, 0x0e, 0x00, 0x14, 0x00, 0x00, 0x00, 0x10, 0x00, 0x0c, 0x00,
  0x08, 0x00, 0x04, 0x00, 0x0e, 0x00, 0x00, 0x00, 0x03, 0x00, 0x00, 0x00,
  0x01, 0x00, 0x00, 0x00, 0x03, 0x00, 0x00, 0x00, 0x01, 0x00, 0x00, 0x00,
  0x01, 0x00, 0x00, 0x00, 0x0d, 0x00, 0x00, 0x00, 0x01, 0x00, 0x00, 0x00,
  0x0c, 0x00, 0x00, 0x00, 0xe8, 0xd1, 0xff, 0xff, 0x14, 0x00, 0x00, 0x00,
  0x0e, 0x00, 0x00, 0x00, 0x20, 0x00, 0x00, 0x00, 0x58, 0x00, 0x00, 0x00,
  0x40, 0x00, 0x00, 0x00, 0x04, 0x00, 0x00, 0x00, 0x01, 0x00, 0x00, 0x00,
  0x07, 0x00, 0x00, 0x00, 0x01, 0x00, 0x00, 0x00, 0x10, 0x00, 0x00, 0x00,
  0x22, 0x00, 0x00, 0x00, 0x73, 0x65, 0x71, 0x75, 0x65, 0x6e, 0x74, 0x69,
  0x61, 0x6c, 0x2f, 0x6d, 0x61, 0x78, 0x5f, 0x70, 0x6f, 0x6f, 0x6c, 0x69,
  0x6e, 0x67, 0x32, 0x64, 0x5f, 0x31, 0x2f, 0x4d, 0x61, 0x78, 0x50, 0x6f,
  0x6f, 0x6c, 0x00, 0x00, 0x04, 0x00, 0x00, 0x00, 0xff, 0xff, 0xff, 0xff,
  0x07, 0x00, 0x00, 0x00, 0x01, 0x00, 0x00, 0x00, 0x10, 0x00, 0x00, 0x00,
  0xe4, 0xd1, 0xff, 0xff, 0x1a, 0xfe, 0xff, 0xff, 0x00, 0x00, 0x00, 0x01,
  0x24, 0x00, 0x00, 0x00, 0x18, 0x00, 0x00, 0x00, 0x04, 0x00, 0x00, 0x00,
  0x0c, 0xfe, 0xff, 0xff, 0x01, 0x00, 0x00, 0x00, 0x01, 0x00, 0x00, 0x00,
  0x00, 0x00, 0x00, 0x01, 0x01, 0x00, 0x00, 0x00, 0x0c, 0x00, 0x00, 0x00,
  0x03, 0x00, 0x00, 0x00, 0x0b, 0x00, 0x00, 0x00, 0x09, 0x00, 0x00, 0x00,
  0x02, 0x00, 0x00, 0x00, 0x90, 0xd2, 0xff, 0xff, 0x14, 0x00, 0x00, 0x00,
  0x0d, 0x00, 0x00, 0x00, 0x20, 0x00, 0x00, 0x00, 0xb8, 0x00, 0x00, 0x00,
  0xa0, 0x00, 0x00, 0x00, 0x04, 0x00, 0x00, 0x00, 0x01, 0x00, 0x00, 0x00,
  0x15, 0x00, 0x00, 0x00, 0x01, 0x00, 0x00, 0x00, 0x10, 0x00, 0x00, 0x00,
  0x83, 0x00, 0x00, 0x00, 0x73, 0x65, 0x71, 0x75, 0x65, 0x6e, 0x74, 0x69,
  0x61, 0x6c, 0x2f, 0x63, 0x6f, 0x6e, 0x76, 0x32, 0x64, 0x5f, 0x31, 0x2f,
  0x52, 0x65, 0x6c, 0x75, 0x3b, 0x73, 0x65, 0x71, 0x75, 0x65, 0x6e, 0x74,
  0x69, 0x61, 0x6c, 0x2f, 0x63, 0x6f, 0x6e, 0x76, 0x32, 0x64, 0x5f, 0x31,
  0x2f, 0x42, 0x69, 0x61, 0x73, 0x41, 0x64, 0x64, 0x3b, 0x73, 0x65, 0x71,
  0x75, 0x65, 0x6e, 0x74, 0x69, 0x61, 0x6c, 0x2f, 0x63, 0x6f, 0x6e, 0x76,
  0x32, 0x64, 0x5f, 0x31, 0x2f, 0x43, 0x6f, 0x6e, 0x76, 0x32, 0x44, 0x3b,
  0x73, 0x65, 0x71, 0x75, 0x65, 0x6e, 0x74, 0x69, 0x61, 0x6c, 0x2f, 0x63,
  0x6f, 0x6e, 0x76, 0x32, 0x64, 0x5f, 0x31, 0x2f, 0x42, 0x69, 0x61, 0x73,
  0x41, 0x64, 0x64, 0x2f, 0x52, 0x65, 0x61, 0x64, 0x56, 0x61, 0x72, 0x69,
  0x61, 0x62, 0x6c, 0x65, 0x4f, 0x70, 0x2f, 0x72, 0x65, 0x73, 0x6f, 0x75,
  0x72, 0x63, 0x65, 0x00, 0x04, 0x00, 0x00, 0x00, 0xff, 0xff, 0xff, 0xff,
  0x15, 0x00, 0x00, 0x00, 0x01, 0x00, 0x00, 0x00, 0x10, 0x00, 0x00, 0x00,
  0xfc, 0xd3, 0xff, 0xff, 0x00, 0x00, 0x0e, 0x00, 0x1a, 0x00, 0x08, 0x00,
  0x0c, 0x00, 0x10, 0x00, 0x07, 0x00, 0x14, 0x00, 0x0e, 0x00, 0x00, 0x00,
  0x00, 0x00, 0x00, 0x05, 0x01, 0x00, 0x00, 0x00, 0x3c, 0x00, 0x00, 0x00,
  0x30, 0x00, 0x00, 0x00, 0x14, 0x00, 0x00, 0x00, 0x00, 0x00, 0x0e, 0x00,
  0x18, 0x00, 0x17, 0x00, 0x10, 0x00, 0x0c, 0x00, 0x08, 0x00, 0x04, 0x00,
  0x0e, 0x00, 0x00, 0x00, 0x03, 0x00, 0x00, 0x00, 0x03, 0x00, 0x00, 0x00,
  0x03, 0x00, 0x00, 0x00, 0x03, 0x00, 0x00, 0x00, 0x00, 0x00, 0x00, 0x01,
  0x01, 0x00, 0x00, 0x00, 0x0b, 0x00, 0x00, 0x00, 0x01, 0x00, 0x00, 0x00,
  0x0a, 0x00, 0x00, 0x00, 0x2c, 0xff, 0xff, 0xff, 0x11, 0x00, 0x00, 0x00,
  0x00, 0x00, 0x00, 0x11, 0x01, 0x00, 0x00, 0x00, 0xcc, 0xd3, 0xff, 0xff,
  0x14, 0x00, 0x00, 0x00, 0x0c, 0x00, 0x00, 0x00, 0x20, 0x00, 0x00, 0x00,
  0x58, 0x00, 0x00, 0x00, 0x40, 0x00, 0x00, 0x00, 0x04, 0x00, 0x00, 0x00,
  0x01, 0x00, 0x00, 0x00, 0x15, 0x00, 0x00, 0x00, 0x01, 0x00, 0x00, 0x00,
  0x08, 0x00, 0x00, 0x00, 0x20, 0x00, 0x00, 0x00, 0x73, 0x65, 0x71, 0x75,
  0x65, 0x6e, 0x74, 0x69, 0x61, 0x6c, 0x2f, 0x6d, 0x61, 0x78, 0x5f, 0x70,
  0x6f, 0x6f, 0x6c, 0x69, 0x6e, 0x67, 0x32, 0x64, 0x2f, 0x4d, 0x61, 0x78,
  0x50, 0x6f, 0x6f, 0x6c, 0x00, 0x00, 0x00, 0x00, 0x04, 0x00, 0x00, 0x00,
  0xff, 0xff, 0xff, 0xff, 0x15, 0x00, 0x00, 0x00, 0x01, 0x00, 0x00, 0x00,
  0x08, 0x00, 0x00, 0x00, 0xd8, 0xd4, 0xff, 0xff, 0x00, 0x00, 0x0e, 0x00,
  0x14, 0x00, 0x00, 0x00, 0x08, 0x00, 0x0c, 0x00, 0x07, 0x00, 0x10, 0x00,
  0x0e, 0x00, 0x00, 0x00, 0x00, 0x00, 0x00, 0x01, 0x30, 0x00, 0x00, 0x00,
  0x24, 0x00, 0x00, 0x00, 0x10, 0x00, 0x00, 0x00, 0x0c, 0x00, 0x10, 0x00,
  0x00, 0x00, 0x04, 0x00, 0x08, 0x00, 0x0f, 0x00, 0x0c, 0x00, 0x00, 0x00,
  0x01, 0x00, 0x00, 0x00, 0x01, 0x00, 0x00, 0x00, 0x00, 0x00, 0x00, 0x01,
  0x01, 0x00, 0x00, 0x00, 0x0a, 0x00, 0x00, 0x00, 0x03, 0x00, 0x00, 0x00,
  0x00, 0x00, 0x00, 0x00, 0x08, 0x00, 0x00, 0x00, 0x01, 0x00, 0x00, 0x00,
  0x0c, 0x00, 0x10, 0x00, 0x0b, 0x00, 0x00, 0x00, 0x0c, 0x00, 0x04, 0x00,
  0x0c, 0x00, 0x00, 0x00, 0x03, 0x00, 0x00, 0x00, 0x00, 0x00, 0x00, 0x03,
  0x01, 0x00, 0x00, 0x00, 0xac, 0xd4, 0xff, 0xff, 0x14, 0x00, 0x00, 0x00,
  0x0b, 0x00, 0x00, 0x00, 0x20, 0x00, 0x00, 0x00, 0xb0, 0x00, 0x00, 0x00,
  0x98, 0x00, 0x00, 0x00, 0x04, 0x00, 0x00, 0x00, 0x01, 0x00, 0x00, 0x00,
  0x40, 0x00, 0x00, 0x00, 0x03, 0x00, 0x00, 0x00, 0x08, 0x00, 0x00, 0x00,
  0x7b, 0x00, 0x00, 0x00, 0x73, 0x65, 0x71, 0x75, 0x65, 0x6e, 0x74, 0x69,
  0x61, 0x6c, 0x2f, 0x63, 0x6f, 0x6e, 0x76, 0x32, 0x64, 0x2f, 0x52, 0x65,
  0x6c, 0x75, 0x3b, 0x73, 0x65, 0x71, 0x75, 0x65, 0x6e, 0x74, 0x69, 0x61,
  0x6c, 0x2f, 0x63, 0x6f, 0x6e, 0x76, 0x32, 0x64, 0x2f, 0x42, 0x69, 0x61,
  0x73, 0x41, 0x64, 0x64, 0x3b, 0x73, 0x65, 0x71, 0x75, 0x65, 0x6e, 0x74,
  0x69, 0x61, 0x6c, 0x2f, 0x63, 0x6f, 0x6e, 0x76, 0x32, 0x64, 0x2f, 0x43,
  0x6f, 0x6e, 0x76, 0x32, 0x44, 0x3b, 0x73, 0x65, 0x71, 0x75, 0x65, 0x6e,
  0x74, 0x69, 0x61, 0x6c, 0x2f, 0x63, 0x6f, 0x6e, 0x76, 0x32, 0x64, 0x2f,
  0x42, 0x69, 0x61, 0x73, 0x41, 0x64, 0x64, 0x2f, 0x52, 0x65, 0x61, 0x64,
  0x56, 0x61, 0x72, 0x69, 0x61, 0x62, 0x6c, 0x65, 0x4f, 0x70, 0x2f, 0x72,
  0x65, 0x73, 0x6f, 0x75, 0x72, 0x63, 0x65, 0x00, 0x04, 0x00, 0x00, 0x00,
  0xff, 0xff, 0xff, 0xff, 0x40, 0x00, 0x00, 0x00, 0x03, 0x00, 0x00, 0x00,
  0x08, 0x00, 0x00, 0x00, 0x00, 0xd5, 0xff, 0xff, 0x0a, 0xd6, 0xff, 0xff,
  0x04, 0x00, 0x00, 0x00, 0x00, 0x08, 0x00, 0x00, 0x0f, 0x9f, 0x74, 0x3d,
  0xf5, 0x9e, 0x9d, 0x3d, 0xf3, 0xf9, 0x5a, 0x3c, 0x4d, 0x65, 0x78, 0xbe,
  0x59, 0xf5, 0x4a, 0xbe, 0x64, 0xb1, 0xce, 0x3d, 0x1d, 0x37, 0xff, 0x3c,
  0xc2, 0x58, 0xe6, 0xbd, 0xeb, 0x7b, 0xd0, 0xbd, 0xc7, 0x45, 0x0e, 0xbd,
  0x44, 0x3d, 0x6a, 0x3c, 0x0d, 0x4a, 0x04, 0xbe, 0xe1, 0xff, 0x08, 0xbe,
  0x34, 0xd3, 0x3a, 0x3e, 0x9d, 0xf5, 0x08, 0xbe, 0xaf, 0x25, 0x86, 0xbe,
  0xb3, 0x35, 0x2a, 0xbe, 0x3d, 0x92, 0x0d, 0xbe, 0xfc, 0x0e, 0xbc, 0x3b,
  0x96, 0xb8, 0x4c, 0xbe, 0x04, 0x62, 0x90, 0xbe, 0x17, 0x05, 0x34, 0x3e,
  0x1b, 0x95, 0x43, 0x3d, 0x44, 0x57, 0x77, 0xbd, 0xa1, 0xc1, 0x2d, 0xbe,
  0xe5, 0xa6, 0xc7, 0x3c, 0x4d, 0xce, 0xea, 0x3b, 0xf5, 0xa7, 0x85, 0x3e,
  0x2d, 0x52, 0xc4, 0xbd, 0x63, 0xcf, 0x43, 0x3f, 0xe7, 0x9e, 0xa4, 0xbd,
  0x36, 0xa0, 0xff, 0x3d, 0xa8, 0xda, 0x46, 0xbf, 0x3f, 0xe8, 0x08, 0xbf,
  0xe9, 0x72, 0xe8, 0xbd, 0x6e, 0x2e, 0xaa, 0xbe, 0x09, 0x5c, 0x74, 0xbe,
  0xb3, 0xdb, 0x10, 0xbf, 0xaf, 0x77, 0xc9, 0xbd, 0x59, 0x2e, 0x49, 0xbc,
  0xde, 0xbb, 0x55, 0xbe, 0x06, 0x79, 0x55, 0xbc, 0xaf, 0x6c, 0x99, 0xbd,
  0x6a, 0xf6, 0xe7, 0x3d, 0xb0, 0x37, 0x31, 0x3e, 0xd8, 0xa6, 0xe2, 0x3d,
  0xde, 0xfc, 0x7a, 0x3d, 0x6d, 0x22, 0x3e, 0x3e, 0xd6, 0x72, 0x13, 0xbe,
  0x43, 0x81, 0xaa, 0x3a, 0x30, 0x6f, 0x68, 0x3e, 0x4e, 0xd0, 0xcd, 0x3c,
  0x93, 0x64, 0x3d, 0x3d, 0x28, 0xdf, 0x93, 0x3c, 0x01, 0x4d, 0x18, 0x3a,
  0x5f, 0x37, 0xa8, 0x3c, 0x54, 0x66, 0x4a, 0xbe, 0xd7, 0x3e, 0x78, 0xbe,
  0x89, 0xc2, 0x88, 0xbd, 0xc9, 0x2e, 0x2c, 0xbe, 0x1f, 0x19, 0x44, 0x3c,
  0x68, 0x84, 0x14, 0xbf, 0x72, 0xbc, 0x46, 0xbe, 0x67, 0x78, 0xf8, 0xbd,
  0xe5, 0x5a, 0x75, 0x3d, 0xdf, 0xf1, 0x85, 0xbe, 0x86, 0xbc, 0xc6, 0x3c,
  0x54, 0xd6, 0xa6, 0xbe, 0x46, 0x4d, 0x1f, 0xbf, 0xab, 0x83, 0x40, 0xbd,
  0xcf, 0x0e, 0x1f, 0x3e, 0x55, 0x3e, 0x62, 0x3e, 0x1a, 0xd9, 0x5c, 0xbd,
  0xe8, 0x52, 0x5a, 0x3d, 0x51, 0x5a, 0xd0, 0x3d, 0xb5, 0xc4, 0xa1, 0xbd,
  0x68, 0x0d, 0x53, 0xbf, 0xc3, 0xf7, 0xa7, 0xbe, 0x37, 0xff, 0x3b, 0x3d,
  0x26, 0x3a, 0x38, 0xbe, 0xe1, 0xd2, 0xc1, 0x3b, 0x1a, 0x4c, 0x79, 0x3e,
  0x00, 0x11, 0xf4, 0xbd, 0xd1, 0x91, 0x58, 0xbe, 0xd4, 0x51, 0x14, 0xbf,
  0x86, 0x1d, 0xca, 0x3c, 0x96, 0xe1, 0xc5, 0x3d, 0x24, 0xd3, 0x5c, 0x3e,
  0x43, 0x05, 0xa3, 0x3e, 0xdd, 0x61, 0x8d, 0x3e, 0x94, 0x6e, 0x0c, 0xbd,
  0x36, 0xed, 0xf2, 0xbd, 0x3c, 0x87, 0xd9, 0xbe, 0xda, 0x40, 0x24, 0xbe,
  0x8a, 0x4e, 0x52, 0xbb, 0x87, 0x41, 0x96, 0x3d, 0x45, 0x01, 0xc6, 0xbd,
  0x9d, 0xa4, 0x07, 0xbd, 0x25, 0xa3, 0x89, 0x3d, 0x3c, 0xf7, 0x9f, 0xbe,
  0x11, 0x8c, 0x54, 0xbf, 0xb3, 0xe4, 0x3b, 0xbd, 0x30, 0xb7, 0x79, 0xbe,
  0xb3, 0x64, 0x82, 0xbf, 0x74, 0xc2, 0x05, 0xbe, 0x2a, 0x42, 0xb6, 0xbd,
  0x63, 0xfb, 0x2c, 0x3e, 0xe3, 0x1a, 0xd3, 0xbe, 0x17, 0x95, 0x5e, 0xbf,
  0x7a, 0x58, 0xbd, 0xbe, 0x45, 0x9b, 0x97, 0xbe, 0xf9, 0x76, 0xa5, 0xbf,
  0x96, 0xcc, 0x92, 0xbc, 0x09, 0x7f, 0x9b, 0x3e, 0x1c, 0x32, 0xed, 0xbe,
  0x5a, 0xa9, 0x30, 0xbd, 0x69, 0xec, 0x10, 0xbf, 0x8a, 0x98, 0x54, 0x3e,
  0xc4, 0x90, 0x34, 0x3e, 0xf7, 0xe1, 0x4a, 0xbf, 0x80, 0x05, 0x0b, 0x3e,
  0xb9, 0x2a, 0xad, 0x3d, 0xf8, 0x77, 0xc7, 0xbe, 0xbe, 0x49, 0x7e, 0xbe,
  0xdb, 0x1f, 0x8f, 0xbe, 0x7f, 0xb1, 0x35, 0x3d, 0xd5, 0xfe, 0x93, 0x3e,
  0x13, 0x1a, 0xd0, 0xbe, 0x10, 0x1d, 0xd5, 0xbe, 0x8b, 0x74, 0x47, 0xbf,
  0xd7, 0x56, 0xa7, 0xbe, 0x83, 0x60, 0xe3, 0xbe, 0x13, 0xcb, 0xa7, 0xbe,
  0x89, 0x79, 0x8d, 0xbe, 0x3a, 0xac, 0xf5, 0xbd, 0x61, 0x5a, 0x26, 0xbe,
  0xae, 0x98, 0x88, 0xbd, 0x11, 0x51, 0xdd, 0xbc, 0x0d, 0xdc, 0x9f, 0xbe,
  0x5b, 0x3e, 0x46, 0x3c, 0x13, 0x99, 0x3a, 0xbe, 0x03, 0x77, 0x1c, 0xbf,
  0xbf, 0x7f, 0x73, 0xbe, 0x4a, 0xf8, 0x7b, 0xbe, 0x0e, 0x43, 0x03, 0xbe,
  0x86, 0x7b, 0x8c, 0xbe, 0x91, 0x5d, 0x52, 0xbe, 0xe6, 0xc1, 0xb0, 0xbd,
  0xf1, 0x5f, 0x48, 0xbe, 0x71, 0xf2, 0x0d, 0xbe, 0x2d, 0x2b, 0x50, 0x3e,
  0x92, 0x51, 0x61, 0xbe, 0x1f, 0xc5, 0x10, 0x3e, 0x5a, 0x21, 0xb5, 0x3d,
  0xb6, 0x4d, 0xb0, 0xbe, 0x1c, 0x4e, 0xd1, 0xbc, 0xdc, 0x5b, 0x4f, 0xbc,
  0x0e, 0x44, 0xd4, 0xbe, 0x50, 0xb7, 0x9a, 0x3d, 0xd7, 0x88, 0x49, 0xbe,
  0xff, 0x6b, 0xe7, 0xbd, 0xec, 0x58, 0xed, 0xbc, 0x52, 0x9a, 0xce, 0xbe,
  0xde, 0xb7, 0x71, 0xbd, 0xe5, 0x6e, 0x29, 0xbe, 0x74, 0x31, 0x12, 0xbc,
  0xfc, 0x55, 0x2c, 0x3e, 0x5f, 0xc7, 0xe4, 0xbd, 0x67, 0xce, 0x42, 0x3d,
  0xeb, 0x43, 0x8a, 0xbc, 0x35, 0x8f, 0x7f, 0xbe, 0xf5, 0xd6, 0x2b, 0x3d,
  0x08, 0xda, 0xeb, 0x3c, 0x94, 0xdd, 0x7b, 0x3e, 0x4f, 0x88, 0x16, 0xbd,
  0x8d, 0x82, 0xe2, 0xbc, 0x9e, 0xe0, 0x09, 0xbe, 0x5b, 0x2f, 0x5a, 0x3d,
  0xfc, 0x91, 0x80, 0xbe, 0x42, 0xc0, 0x9e, 0x3e, 0xa5, 0xb1, 0xf5, 0xbc,
  0x30, 0xe0, 0x2a, 0x3d, 0x3a, 0x36, 0xaa, 0x3d, 0x4f, 0x96, 0x34, 0x3e,
  0x76, 0xfa, 0xf6, 0x3a, 0x6a, 0x1a, 0x23, 0x3e, 0x5a, 0x0c, 0x66, 0xbe,
  0x01, 0x9a, 0x18, 0x3e, 0xf6, 0x0c, 0x34, 0x3d, 0x81, 0xf2, 0xef, 0x3c,
  0x13, 0xa5, 0x66, 0x3e, 0x93, 0x9f, 0xaf, 0x3d, 0x1b, 0xe1, 0x7a, 0xbd,
  0xb5, 0x5e, 0xfd, 0x3d, 0xb3, 0x4f, 0x4e, 0x3e, 0x00, 0x0a, 0x37, 0xbd,
  0xd0, 0x58, 0x6e, 0xbc, 0x45, 0x69, 0x45, 0x3e, 0xe6, 0x83, 0xdc, 0xbc,
  0x5f, 0x17, 0xd2, 0xbe, 0xfc, 0x23, 0x7d, 0xbd, 0x2b, 0x6c, 0xb4, 0x3d,
  0xed, 0x7c, 0x8d, 0xbd, 0x40, 0x37, 0x09, 0x3e, 0x4b, 0x8e, 0xcd, 0x3d,
  0x31, 0x5a, 0x8f, 0xbd, 0x92, 0xbd, 0x49, 0x3d, 0xf8, 0xed, 0xcc, 0xbe,
  0xec, 0xde, 0xb3, 0xbd, 0xe4, 0xa6, 0x2c, 0xbe, 0xe6, 0xdf, 0xcc, 0xbd,
  0x39, 0xa8, 0x43, 0x3e, 0x8e, 0x67, 0x32, 0x3d, 0xcf, 0x61, 0x22, 0x3f,
  0x9f, 0xdd, 0xdb, 0xbd, 0x3c, 0x19, 0xbb, 0xbe, 0x35, 0xf8, 0x50, 0xbe,
  0x98, 0x69, 0xa8, 0xbd, 0xfe, 0x5a, 0xdc, 0xbd, 0x76, 0x93, 0xf5, 0xbd,
  0xfb, 0x56, 0xe7, 0xbd, 0xaa, 0xce, 0x22, 0xbf, 0x2a, 0x7f, 0x16, 0xbe,
  0xfc, 0x79, 0x02, 0xbe, 0xd1, 0x16, 0x81, 0xbd, 0xba, 0x48, 0xff, 0xbd,
  0xe1, 0x96, 0xbc, 0xbd, 0xb7, 0xa2, 0xdc, 0x3d, 0xbf, 0x7b, 0x31, 0x3f,
  0xcb, 0x25, 0x58, 0xbd, 0x91, 0xe5, 0xdf, 0xbd, 0x8c, 0x3b, 0x01, 0x3e,
  0xbf, 0x8b, 0xac, 0xbd, 0x43, 0x21, 0xc5, 0xbd, 0x45, 0x09, 0xa4, 0xbd,
  0x81, 0xa5, 0x4d, 0x3e, 0x3f, 0xde, 0x22, 0x3d, 0xf9, 0x87, 0x54, 0xbc,
  0x66, 0xde, 0x00, 0xbe, 0x75, 0x90, 0xe9, 0x3a, 0x8a, 0xf0, 0xdd, 0xbc,
  0x6c, 0x3d, 0xc0, 0xbd, 0x4b, 0x23, 0x59, 0xbd, 0x2a, 0xc2, 0x82, 0xbd,
  0x26, 0xdd, 0x8f, 0x3e, 0x05, 0x61, 0x4c, 0x3c, 0x5d, 0x47, 0x6f, 0xbd,
  0x7a, 0xce, 0xbc, 0x3d, 0xb5, 0x1e, 0xb6, 0x3c, 0x94, 0x80, 0x5e, 0xbd,
  0x5c, 0x66, 0x80, 0xbd, 0x96, 0x39, 0x98, 0x3e, 0xc1, 0xda, 0xf9, 0xbd,
  0xd9, 0xd5, 0x01, 0x3d, 0x5b, 0x78, 0xd8, 0xbd, 0x4a, 0x9a, 0x0d, 0x3b,
  0x26, 0x76, 0x4f, 0x3e, 0x8c, 0xbb, 0xc9, 0xbd, 0x07, 0x78, 0x18, 0xbe,
  0x49, 0xd7, 0xca, 0xbc, 0x5b, 0x62, 0xc4, 0xbd, 0xd6, 0xbe, 0x89, 0x38,
  0x66, 0x04, 0xd3, 0xbd, 0xc5, 0xb9, 0xd5, 0xbb, 0x48, 0x57, 0xdd, 0x3c,
  0x74, 0x1d, 0x3e, 0xbd, 0x57, 0x0e, 0xef, 0x3e, 0xe1, 0xee, 0x83, 0xbd,
  0x00, 0x59, 0x64, 0xbd, 0x48, 0x97, 0x06, 0xbd, 0x8c, 0x93, 0xce, 0xbd,
  0x0f, 0x37, 0x9f, 0x3c, 0x4c, 0x8f, 0x48, 0x3a, 0x4f, 0xe2, 0x01, 0x3d,
  0xea, 0x39, 0x78, 0xbd, 0x6b, 0xee, 0xd2, 0xbc, 0x27, 0xe8, 0x1c, 0xbe,
  0x3f, 0xb1, 0xc1, 0x3d, 0x78, 0xd8, 0xd3, 0xbc, 0x99, 0xdd, 0x46, 0xbb,
  0xd3, 0x94, 0x7c, 0xbc, 0x06, 0x40, 0x95, 0x3d, 0xe2, 0x5e, 0x9c, 0xbd,
  0x42, 0x19, 0xfd, 0xbc, 0x13, 0xea, 0x38, 0xbe, 0x73, 0x86, 0x0c, 0x3a,
  0x5e, 0xdb, 0xbe, 0xbd, 0x36, 0xaa, 0x55, 0xbd, 0xa2, 0xa8, 0x59, 0x3d,
  0xf6, 0x3b, 0xcd, 0x3e, 0xd6, 0x1a, 0x06, 0x3e, 0x33, 0x7a, 0xb3, 0x3b,
  0xd7, 0x13, 0x98, 0xbc, 0xaa, 0x6a, 0xd4, 0x3e, 0xff, 0x5c, 0xa4, 0x3e,
  0x34, 0x0d, 0x8e, 0xbe, 0xc9, 0x4f, 0x52, 0xbe, 0x57, 0xe2, 0x04, 0xbe,
  0x3e, 0x03, 0x07, 0xbe, 0x9d, 0xfb, 0x9a, 0xbe, 0x9e, 0x74, 0x9f, 0xbe,
  0x87, 0xdc, 0x75, 0x3e, 0x71, 0xe1, 0x00, 0xbe, 0x56, 0x8f, 0x88, 0xbe,
  0xb2, 0xab, 0x62, 0xbe, 0x46, 0x50, 0x0d, 0xbe, 0x29, 0x90, 0x0c, 0xbe,
  0x05, 0x1c, 0x27, 0xbe, 0x33, 0x4f, 0x79, 0xbe, 0x50, 0x45, 0x82, 0x3e,
  0x27, 0xe9, 0xc5, 0xbd, 0x4a, 0x92, 0x2e, 0xbe, 0xac, 0xa4, 0x35, 0xbe,
  0xd3, 0x54, 0x2f, 0xbe, 0x96, 0x1e, 0xfe, 0xbd, 0x1b, 0x35, 0x2c, 0xbe,
  0x31, 0x51, 0x20, 0xbe, 0x1a, 0x9d, 0x46, 0xbd, 0x99, 0xa2, 0x4d, 0xbd,
  0x56, 0x59, 0xb6, 0x3e, 0x43, 0x90, 0x15, 0xbe, 0x3e, 0x98, 0xd8, 0xbd,
  0x7c, 0x33, 0x38, 0xbd, 0x53, 0x45, 0x89, 0xbe, 0xe7, 0x37, 0x12, 0xbe,
  0xe0, 0xd8, 0x9d, 0xbe, 0xab, 0x6c, 0x00, 0xbe, 0xc9, 0xeb, 0x60, 0xbe,
  0xa4, 0x7a, 0xf6, 0xbd, 0xbe, 0xa4, 0x0a, 0xbe, 0x8c, 0x39, 0xb1, 0xbc,
  0x34, 0x31, 0x40, 0xbe, 0x8f, 0xca, 0x0c, 0xbe, 0xbf, 0x46, 0x85, 0xbe,
  0x6d, 0xb3, 0x0a, 0xbe, 0xcc, 0xa2, 0xf1, 0xbd, 0x87, 0x2a, 0x71, 0x3c,
  0x9c, 0x99, 0x0e, 0xbd, 0x95, 0xa6, 0xb7, 0x3c, 0x6a, 0xde, 0x71, 0x3e,
  0x7d, 0x28, 0x6e, 0xbd, 0x77, 0x8d, 0xb9, 0xbe, 0xf0, 0x29, 0x6f, 0xbd,
  0xdb, 0x8b, 0x43, 0xbd, 0xba, 0xbd, 0xcc, 0x3e, 0xea, 0xbf, 0x36, 0x3e,
  0x75, 0x88, 0xad, 0x3d, 0xb5, 0xd3, 0x43, 0x3f, 0x45, 0x78, 0x16, 0x3e,
  0x06, 0x7b, 0x3a, 0x3d, 0xb7, 0x29, 0x7b, 0x3d, 0xae, 0xa3, 0x60, 0x3d,
  0x6c, 0xc5, 0xc2, 0x3e, 0x3a, 0x86, 0xaf, 0x3d, 0x22, 0x02, 0x2f, 0xbf,
  0x7f, 0x81, 0x79, 0x3e, 0x07, 0xf4, 0x83, 0x3e, 0xc7, 0xcd, 0xa8, 0xbc,
  0xba, 0x63, 0x5f, 0x3e, 0xbf, 0x92, 0x04, 0xbe, 0x4d, 0x22, 0xd5, 0xbd,
  0xad, 0xde, 0xa8, 0x3e, 0x30, 0x66, 0xea, 0xbe, 0xd0, 0xb6, 0x5e, 0xbe,
  0x03, 0x3b, 0x2f, 0xbd, 0x65, 0x5e, 0xef, 0x3c, 0xb1, 0xf3, 0x98, 0x3e,
  0x1d, 0x11, 0x06, 0xbe, 0x9d, 0x7c, 0x60, 0xbe, 0xe3, 0xe3, 0x0e, 0xbe,
  0xbd, 0xb9, 0x9a, 0xbe, 0x2a, 0x19, 0xfb, 0xbe, 0x06, 0xe6, 0xad, 0xbe,
  0x18, 0x2d, 0xc2, 0xbd, 0x04, 0xb0, 0xcb, 0xbd, 0x15, 0x2c, 0x6e, 0xbe,
  0x56, 0x36, 0x9a, 0xbe, 0x11, 0x15, 0x26, 0xbe, 0x37, 0x21, 0xa4, 0x3d,
  0x97, 0x0b, 0x1c, 0xbf, 0xe1, 0xb0, 0xce, 0xbe, 0xbe, 0xf1, 0xc1, 0xbe,
  0xf6, 0xcc, 0x3e, 0xbe, 0x0b, 0xbd, 0x89, 0xbd, 0xcf, 0xca, 0x24, 0xbe,
  0x0b, 0xe5, 0x5e, 0xbe, 0x13, 0x97, 0xa7, 0x3b, 0x85, 0xa4, 0xf7, 0x3d,
  0x32, 0x0c, 0x58, 0xbe, 0x7d, 0x99, 0x80, 0x3e, 0xdb, 0x72, 0x50, 0x3c,
  0x22, 0x11, 0x18, 0xbe, 0x53, 0xd3, 0x2d, 0xbe, 0xef, 0x1f, 0x07, 0xbe,
  0x37, 0x00, 0x96, 0x3b, 0xb4, 0x03, 0xbf, 0x3d, 0x18, 0x61, 0x95, 0x3b,
  0x27, 0xe5, 0xe6, 0xba, 0x81, 0x2d, 0x70, 0xbe, 0xdf, 0x89, 0x83, 0xbd,
  0xac, 0x91, 0xcf, 0xbb, 0x84, 0x9f, 0x50, 0xbd, 0x2f, 0x37, 0xd4, 0xbb,
  0x7f, 0x41, 0x64, 0x3e, 0xa0, 0x5d, 0xc9, 0xbd, 0x32, 0x6e, 0x66, 0x3f,
  0xcd, 0xb7, 0xfb, 0x3d, 0xb0, 0xa3, 0xa0, 0xbe, 0x82, 0x4f, 0x19, 0xbe,
  0x03, 0x7d, 0xdf, 0xbc, 0x88, 0x20, 0x07, 0xbd, 0x2c, 0x18, 0x7f, 0x3e,
  0x24, 0x71, 0x41, 0xbe, 0x62, 0x79, 0xa6, 0x3e, 0x77, 0x18, 0xfc, 0x3d,
  0xab, 0x28, 0xcf, 0xbe, 0x0c, 0x67, 0xf2, 0xbd, 0x5d, 0x1b, 0xd3, 0xbd,
  0x15, 0xda, 0x92, 0x3d, 0x33, 0x98, 0x50, 0x3e, 0x86, 0x5a, 0x6e, 0x3e,
  0x32, 0xaf, 0x23, 0x3f, 0x3f, 0xb5, 0x87, 0xbd, 0x1a, 0x4a, 0x08, 0x3d,
  0x75, 0xf7, 0x8b, 0xbe, 0x34, 0x29, 0x31, 0xbe, 0xed, 0xad, 0x93, 0xbb,
  0x86, 0x3d, 0xba, 0x3e, 0xf5, 0x39, 0x82, 0x3d, 0xee, 0xa0, 0x56, 0xbe,
  0x7c, 0xf1, 0x0a, 0xbe, 0x8c, 0x78, 0x9e, 0xbd, 0x86, 0x2c, 0xd2, 0xbc,
  0x8a, 0x02, 0x28, 0xbe, 0x8f, 0xa2, 0x8b, 0x3c, 0xe6, 0xb4, 0x05, 0x3f,
  0x6e, 0x9c, 0x28, 0xbe, 0x2d, 0x66, 0x4c, 0xbe, 0xa5, 0x9b, 0x77, 0xbe,
  0xd5, 0x40, 0x10, 0xbe, 0x1d, 0x5a, 0xcd, 0x3d, 0x5b, 0x51, 0xd9, 0xbd,
  0xcb, 0xad, 0xbf, 0x39, 0xb4, 0x11, 0x35, 0x3d, 0xdf, 0xdb, 0x0a, 0xbe,
  0x4e, 0x3a, 0xb0, 0x3d, 0x1e, 0x78, 0x8a, 0xbe, 0xf5, 0xd0, 0x2b, 0x3e,
  0x21, 0xf9, 0x36, 0xbe, 0x36, 0x9d, 0xe9, 0xbd, 0x61, 0xb1, 0xa6, 0xbc,
  0xfd, 0xe9, 0xcc, 0x3e, 0x58, 0xed, 0x5e, 0x3e, 0xff, 0x26, 0x73, 0x3e,
  0x41, 0x7f, 0xdf, 0xbd, 0xc1, 0xe9, 0x01, 0x3e, 0x21, 0xf7, 0x83, 0xbd,
  0x0f, 0x32, 0x2a, 0xbe, 0x70, 0xbb, 0xf7, 0x39, 0x9f, 0x76, 0x02, 0x3f,
  0x09, 0x90, 0x4d, 0xbe, 0x12, 0x24, 0x2c, 0xbc, 0x36, 0x10, 0x5f, 0xbe,
  0x89, 0xeb, 0x9d, 0xbc, 0x75, 0xf0, 0x67, 0x3d, 0x3f, 0x96, 0xba, 0xbd,
  0x1c, 0xdf, 0x8b, 0x3c, 0x2a, 0x2d, 0x0f, 0xbf, 0x53, 0xd1, 0x67, 0xbf,
  0x92, 0x82, 0x9f, 0xbe, 0x17, 0x31, 0x79, 0xbe, 0xc8, 0x38, 0x08, 0xbf,
  0x48, 0xa8, 0x64, 0x3e, 0x33, 0xfc, 0x05, 0x3d, 0xd2, 0xbb, 0x26, 0x3d,
  0x8c, 0x21, 0x8b, 0xbe, 0xed, 0x09, 0x45, 0xbf, 0x2b, 0xf3, 0xf5, 0xbd,
  0x06, 0x1f, 0xd0, 0xbc, 0x71, 0xbe, 0xed, 0xbe, 0xef, 0x0a, 0xb5, 0xbd,
  0x30, 0x77, 0xe2, 0xbd, 0xd1, 0xd1, 0x46, 0xbe, 0x92, 0x5f, 0x99, 0xbe,
  0xea, 0x4c, 0x0f, 0xbe, 0x25, 0x8e, 0x43, 0xbe, 0x68, 0x2e, 0x23, 0xbe,
  0x3d, 0x93, 0xae, 0xbd, 0xf6, 0x53, 0x87, 0xbd, 0xeb, 0xba, 0xd5, 0xbd,
  0x08, 0xd7, 0x40, 0xbe, 0x39, 0x1c, 0x64, 0xbd, 0x65, 0x7d, 0xf3, 0xbd,
  0xcf, 0x07, 0xae, 0xbd, 0xba, 0x78, 0x1a, 0xbc, 0x6b, 0x1a, 0x9a, 0x3c,
  0xfa, 0xac, 0x00, 0xbd, 0x94, 0xd9, 0xb0, 0xbd, 0xb5, 0x91, 0xcc, 0xbd,
  0xa5, 0x8f, 0x13, 0xbe, 0x6b, 0xca, 0x76, 0x3d, 0x0b, 0x47, 0xd3, 0xbd,
  0xcd, 0xbf, 0xb6, 0xbd, 0xdd, 0xa8, 0x01, 0x3e, 0x6d, 0x2b, 0x1e, 0x3d,
  0xa0, 0xcc, 0xd9, 0xbd, 0xe2, 0xdf, 0x05, 0xbe, 0x9d, 0x75, 0x31, 0x3f,
  0xcf, 0xef, 0xfa, 0x3e, 0xf1, 0xad, 0x20, 0xbe, 0xf5, 0x0c, 0x8e, 0xbd,
  0x3d, 0x46, 0x5d, 0x3d, 0xe2, 0xdd, 0xff, 0xff, 0x10, 0x00, 0x00, 0x00,
  0x0a, 0x00, 0x00, 0x00, 0x1c, 0x00, 0x00, 0x00, 0x38, 0x00, 0x00, 0x00,
  0x04, 0x00, 0x00, 0x00, 0x10, 0x00, 0x00, 0x00, 0x04, 0x00, 0x00, 0x00,
  0x01, 0x00, 0x00, 0x00, 0x08, 0x00, 0x00, 0x00, 0x1a, 0x00, 0x00, 0x00,
  0x73, 0x65, 0x71, 0x75, 0x65, 0x6e, 0x74, 0x69, 0x61, 0x6c, 0x2f, 0x63,
  0x6f, 0x6e, 0x76, 0x32, 0x64, 0x5f, 0x31, 0x2f, 0x43, 0x6f, 0x6e, 0x76,
  0x32, 0x44, 0x00, 0x00, 0x58, 0xdd, 0xff, 0xff, 0x62, 0xde, 0xff, 0xff,
  0x04, 0x00, 0x00, 0x00, 0x80, 0x01, 0x00, 0x00, 0xa8, 0x5d, 0x00, 0x3e,
  0x90, 0x81, 0xc3, 0xbc, 0x6c, 0x65, 0xa8, 0xbd, 0x7d, 0x9c, 0xa8, 0xbd,
  0x21, 0x69, 0x24, 0xbd, 0x00, 0xd4, 0x73, 0x3d, 0x8d, 0x37, 0x39, 0xbe,
  0x36, 0x44, 0x1a, 0xbe, 0x97, 0x12, 0x72, 0xbd, 0x4d, 0xb4, 0x52, 0xbe,
  0xc0, 0xfb, 0xff, 0xbd, 0x32, 0xef, 0x0a, 0x3d, 0x67, 0x24, 0xc3, 0x3c,
  0x44, 0x61, 0x14, 0xbe, 0x11, 0x05, 0x05, 0xbe, 0xd9, 0x49, 0x90, 0x3d,
  0xb1, 0x26, 0x75, 0xbe, 0xb2, 0xe5, 0xd2, 0xbd, 0xa6, 0xf0, 0xdc, 0x3d,
  0x9a, 0xb1, 0x73, 0xbd, 0xe7, 0x75, 0x49, 0xbd, 0x1a, 0xf3, 0x50, 0xbe,
  0x96, 0xf3, 0x6b, 0xbd, 0x18, 0x4d, 0x48, 0xbd, 0xcb, 0x75, 0xd7, 0x3d,
  0x07, 0x69, 0x89, 0x3d, 0x30, 0x75, 0x82, 0x3c, 0xf1, 0xc9, 0x7d, 0x3d,
  0x21, 0xc6, 0x1d, 0x3e, 0xf8, 0xfe, 0x65, 0xbe, 0x0c, 0x5a, 0x70, 0xbd,
  0xc7, 0x28, 0xc1, 0x3c, 0x08, 0x49, 0x5d, 0x3e, 0xcd, 0x0c, 0x13, 0xbd,
  0x9c, 0xe1, 0x61, 0xbe, 0x37, 0x33, 0x5b, 0x3e, 0x3a, 0xd9, 0x1b, 0x3e,
  0x10, 0x2f, 0xcb, 0x3e, 0x2b, 0xf7, 0x5e, 0xbe, 0xf9, 0xbb, 0x02, 0x3d,
  0xce, 0x2b, 0xd3, 0x3d, 0xa0, 0x45, 0xd8, 0xbd, 0xe2, 0x31, 0x0b, 0xbd,
  0x32, 0xae, 0x10, 0xbf, 0x50, 0xb1, 0xb3, 0x3d, 0x8b, 0x60, 0x22, 0xbe,
  0x71, 0x65, 0xd7, 0xbd, 0x76, 0xb3, 0xe7, 0x3d, 0xba, 0x28, 0x4f, 0xbb,
  0xba, 0xd8, 0x7c, 0x3d, 0x06, 0x7f, 0x6d, 0x3a, 0xfc, 0xa6, 0x35, 0x3d,
  0x79, 0x14, 0x20, 0x3e, 0xb7, 0xc2, 0xbf, 0xbe, 0xdb, 0xdc, 0x79, 0xbe,
  0xc7, 0x85, 0x7c, 0xbe, 0x6f, 0x29, 0x86, 0xbe, 0x46, 0x78, 0x10, 0x3d,
  0xed, 0xeb, 0xe7, 0xbd, 0xee, 0xd9, 0x9c, 0x3e, 0x21, 0xbf, 0x02, 0xbe,
  0xb3, 0x63, 0x98, 0xbd, 0xde, 0xf0, 0xbc, 0x3e, 0xe5, 0x57, 0x71, 0xbe,
  0x82, 0x6a, 0x33, 0x3e, 0xce, 0x37, 0x00, 0x3e, 0x87, 0xe5, 0xe2, 0x3d,
  0x01, 0x1f, 0x90, 0xbe, 0x39, 0xb2, 0x14, 0xbf, 0x79, 0xad, 0xdc, 0x3d,
  0x00, 0x3d, 0x63, 0x3d, 0xb5, 0x73, 0xd9, 0xbc, 0xce, 0x2b, 0x5d, 0x3d,
  0x99, 0xd0, 0x6a, 0xbe, 0x4a, 0x46, 0x0b, 0xbe, 0xa0, 0xb8, 0xc4, 0x3d,
  0xd5, 0x8b, 0xaf, 0xbe, 0x6d, 0x87, 0x86, 0xbe, 0x2f, 0xde, 0xc7, 0x3d,
  0x80, 0x49, 0x4b, 0x3e, 0x4c, 0x8e, 0x84, 0x3d, 0x9c, 0x63, 0x34, 0x3e,
  0xcf, 0xa3, 0x0b, 0x3d, 0x90, 0x03, 0x39, 0xbc, 0x06, 0xdb, 0x7f, 0x3e,
  0xab, 0xab, 0x3c, 0x3c, 0x03, 0x04, 0x8d, 0xbc, 0x1c, 0x9a, 0xa9, 0x3e,
  0x01, 0xd3, 0xf8, 0xbd, 0x81, 0x3b, 0xcd, 0xbc, 0xce, 0xbd, 0xa3, 0x3e,
  0xf3, 0xeb, 0x26, 0xbd, 0x80, 0x3d, 0x13, 0x3c, 0x92, 0xa1, 0xb0, 0xbe,
  0x12, 0xdc, 0xa3, 0x3d, 0x56, 0xf4, 0xc2, 0xbc, 0xba, 0xdf, 0xff, 0xff,
  0x10, 0x00, 0x00, 0x00, 0x09, 0x00, 0x00, 0x00, 0x1c, 0x00, 0x00, 0x00,
  0x38, 0x00, 0x00, 0x00, 0x04, 0x00, 0x00, 0x00, 0x08, 0x00, 0x00, 0x00,
  0x04, 0x00, 0x00, 0x00, 0x03, 0x00, 0x00, 0x00, 0x01, 0x00, 0x00, 0x00,
  0x18, 0x00, 0x00, 0x00, 0x73, 0x65, 0x71, 0x75, 0x65, 0x6e, 0x74, 0x69,
  0x61, 0x6c, 0x2f, 0x63, 0x6f, 0x6e, 0x76, 0x32, 0x64, 0x2f, 0x43, 0x6f,
  0x6e, 0x76, 0x32, 0x44, 0x00, 0x00, 0x00, 0x00, 0x30, 0xdf, 0xff, 0xff,
  0x3a, 0xe0, 0xff, 0xff, 0x04, 0x00, 0x00, 0x00, 0x00, 0x01, 0x00, 0x00,
  0xaf, 0x83, 0x43, 0x3e, 0xf0, 0xaf, 0x12, 0x3e, 0xfd, 0x36, 0xa0, 0x3f,
  0xed, 0x71, 0xa5, 0xbe, 0x02, 0x7d, 0xf4, 0xbe, 0x51, 0xb1, 0x14, 0x3e,
  0x20, 0x2a, 0x84, 0xbe, 0xc1, 0x7c, 0x3f, 0x3e, 0xd7, 0x9f, 0x9b, 0xbe,
  0xd4, 0x63, 0x9a, 0xbe, 0xbf, 0x8a, 0x04, 0xbe, 0x58, 0x7e, 0xbe, 0x3d,
  0xf4, 0xf2, 0x11, 0x3e, 0x75, 0x8a, 0xce, 0x3c, 0xc5, 0x37, 0x14, 0x3e,
  0x30, 0xc8, 0x61, 0xbe, 0xdf, 0xac, 0xd4, 0x3d, 0xcd, 0xd4, 0x48, 0x3e,
  0x0c, 0x88, 0x8d, 0xbf, 0xaa, 0xae, 0xaf, 0xbe, 0xd3, 0xad, 0xef, 0xbe,
  0x15, 0x69, 0x0e, 0xbd, 0x88, 0xc1, 0x57, 0xbe, 0x22, 0xe8, 0x09, 0x3e,
  0x3c, 0xba, 0x0a, 0xbd, 0xf9, 0x15, 0xa6, 0xbd, 0xad, 0x14, 0xa7, 0xbd,
  0x42, 0x48, 0xb6, 0x3d, 0xac, 0x64, 0x59, 0x3e, 0x45, 0x64, 0x30, 0x3e,
  0x1a, 0xa9, 0x9e, 0x3d, 0x00, 0x00, 0x50, 0xbe, 0x67, 0x56, 0x41, 0x3e,
  0xe0, 0x0e, 0x25, 0x3e, 0xa7, 0xc9, 0x8d, 0xbf, 0x56, 0x68, 0x87, 0xbe,
  0xd3, 0xe2, 0xcf, 0xbe, 0xb9, 0x09, 0x5a, 0xbd, 0x18, 0xeb, 0x31, 0xbe,
  0x73, 0x82, 0xb2, 0x3d, 0x17, 0x06, 0x70, 0x3e, 0x2a, 0x38, 0xa0, 0xbe,
  0xdd, 0x94, 0x9f, 0xbe, 0xb0, 0x10, 0x89, 0x3c, 0xfa, 0x77, 0x15, 0x3e,
  0xbc, 0xc3, 0x67, 0x3e, 0x7a, 0xf1, 0x41, 0x3d, 0xae, 0xdd, 0x48, 0xbe,
  0x8f, 0x8b, 0x08, 0x3e, 0x43, 0x4a, 0x1c, 0x3e, 0x4b, 0xd1, 0x3a, 0xbf,
  0x2b, 0x49, 0x4d, 0x3e, 0x19, 0x86, 0xed, 0xbe, 0x62, 0xf8, 0xde, 0x3d,
  0xf9, 0xfc, 0x5c, 0xbe, 0x82, 0x06, 0xe6, 0x3d, 0x66, 0x26, 0x76, 0x3d,
  0x8e, 0x7b, 0xa2, 0xbd, 0x7d, 0x99, 0xcc, 0x3c, 0xff, 0x64, 0xef, 0x3c,
  0x34, 0x8c, 0x29, 0x3e, 0x12, 0xc2, 0x64, 0x3e, 0x06, 0xc8, 0x6d, 0x3d,
  0x28, 0x04, 0x8d, 0xbe, 0x12, 0xe1, 0xff, 0xff, 0x10, 0x00, 0x00, 0x00,
  0x08, 0x00, 0x00, 0x00, 0x14, 0x00, 0x00, 0x00, 0x30, 0x00, 0x00, 0x00,
  0x02, 0x00, 0x00, 0x00, 0x04, 0x00, 0x00, 0x00, 0x10, 0x00, 0x00, 0x00,
  0x19, 0x00, 0x00, 0x00, 0x73, 0x65, 0x71, 0x75, 0x65, 0x6e, 0x74, 0x69,
  0x61, 0x6c, 0x2f, 0x64, 0x65, 0x6e, 0x73, 0x65, 0x5f, 0x31, 0x2f, 0x4d,
  0x61, 0x74, 0x4d, 0x75, 0x6c, 0x00, 0x00, 0x00, 0x80, 0xe0, 0xff, 0xff,
  0x8a, 0xe1, 0xff, 0xff, 0x04, 0x00, 0x00, 0x00, 0x00, 0x1c, 0x00, 0x00,
  0xd0, 0x3c, 0xde, 0xbd, 0x5a, 0xdf, 0x3d, 0xbe, 0xb4, 0xb2, 0xb5, 0xbd,
  0xef, 0xe7, 0xa3, 0x3b, 0xa8, 0x7d, 0x10, 0xbe, 0xe4, 0xf3, 0xe1, 0x3b,
  0xcf, 0xa1, 0xa0, 0xbd, 0x25, 0xc7, 0x33, 0x3c, 0x76, 0x08, 0xc5, 0x3e,
  0x85, 0x37, 0x22, 0x3e, 0xbf, 0x3f, 0x3f, 0x3e, 0x8f, 0x46, 0x86, 0x3e,
  0x17, 0x3c, 0x8e, 0x3d, 0xeb, 0x37, 0xbf, 0x3c, 0xd6, 0x9c, 0x4d, 0xbd,
  0xde, 0x79, 0x5d, 0x3c, 0x4e, 0x6d, 0x17, 0x3e, 0x40, 0xa6, 0xb3, 0xbe,
  0x44, 0xd2, 0x6e, 0xbd, 0x38, 0x3b, 0x9d, 0xbe, 0x97, 0xd5, 0x65, 0xbc,
  0xfd, 0xa6, 0x40, 0xbd, 0xd8, 0x7a, 0x95, 0x3d, 0xc8, 0x15, 0x83, 0xbd,
  0xad, 0x19, 0x63, 0x3d, 0x36, 0x30, 0xc3, 0x3e, 0xf0, 0x02, 0x22, 0x3e,
  0x71, 0xc8, 0xbb, 0x3e, 0x4a, 0x77, 0x51, 0xbc, 0x02, 0x5e, 0xa9, 0xbd,
  0xca, 0x50, 0x01, 0xbe, 0x28, 0xc5, 0x86, 0x3d, 0x10, 0x00, 0xe4, 0xbc,
  0xc0, 0x4d, 0x9d, 0xbd, 0xd7, 0x60, 0xdb, 0xbd, 0xe4, 0x2c, 0xc6, 0xbd,
  0x2a, 0x1c, 0x67, 0xbd, 0x24, 0x7d, 0xbe, 0xbc, 0xf3, 0x71, 0xc1, 0x3c,
  0xb6, 0xd2, 0xde, 0xbd, 0x2e, 0xf3, 0x8e, 0xbd, 0x26, 0xa9, 0x92, 0x3e,
  0x4b, 0xf2, 0x39, 0x3e, 0x9d, 0x92, 0xca, 0x3d, 0x27, 0x49, 0x2e, 0xbe,
  0x33, 0x64, 0xa8, 0xbd, 0xb8, 0x20, 0x56, 0xbb, 0xf8, 0x93, 0x92, 0x3e,
  0x61, 0x87, 0x3c, 0xbd, 0x71, 0x00, 0x0c, 0xbe, 0xdc, 0xd3, 0xd9, 0xbd,
  0xdc, 0x82, 0x7b, 0xbe, 0x66, 0xad, 0x97, 0xbd, 0x6d, 0x81, 0x21, 0x3d,
  0xae, 0x77, 0x4b, 0xbe, 0x08, 0xa9, 0xcf, 0xba, 0x94, 0xd3, 0x1d, 0xbe,
  0xc1, 0x40, 0x4b, 0xbd, 0x4b, 0xd9, 0x68, 0x3e, 0xc2, 0xd9, 0x91, 0x3d,
  0xfe, 0x8b, 0x8b, 0xbd, 0x13, 0x71, 0x63, 0xbd, 0xf0, 0x28, 0xf3, 0x3c,
  0xbc, 0x35, 0x4d, 0x3e, 0xd1, 0xa5, 0x83, 0x3d, 0x33, 0x6e, 0x82, 0xbd,
  0x19, 0x1f, 0x26, 0x3c, 0x80, 0x90, 0x5c, 0xbe, 0x4f, 0x18, 0x85, 0xbe,
  0xab, 0x05, 0x01, 0xbd, 0x48, 0xdf, 0xa5, 0x3d, 0xd6, 0xd8, 0x0b, 0xbd,
  0xb7, 0xe0, 0xa0, 0xbd, 0x99, 0xbe, 0xa7, 0x3e, 0x13, 0x52, 0x85, 0x3e,
  0x05, 0xc2, 0x69, 0x3e, 0x16, 0x9d, 0x7b, 0xbd, 0x4d, 0xbb, 0x10, 0xbe,
  0x17, 0xa3, 0x35, 0x3e, 0x20, 0x0b, 0x84, 0x3d, 0x54, 0xc6, 0xf4, 0xbc,
  0x4c, 0x87, 0x5b, 0xbe, 0xa5, 0x17, 0xba, 0xbd, 0xd3, 0x75, 0x98, 0xbe,
  0xde, 0x3f, 0x12, 0xbe, 0xb4, 0xe0, 0x91, 0x3b, 0x5c, 0xb0, 0xc1, 0xbe,
  0x32, 0x52, 0xc6, 0xbd, 0xdc, 0xc2, 0xcc, 0x3d, 0xb4, 0x1d, 0xb2, 0x3e,
  0xdc, 0xf1, 0xb2, 0x3e, 0x4d, 0xea, 0x66, 0x3e, 0x74, 0x67, 0x85, 0xbe,
  0x83, 0x70, 0x38, 0xbe, 0xc9, 0x26, 0xfc, 0xbb, 0x59, 0x3d, 0x42, 0xbd,
  0x54, 0xe2, 0xb8, 0x3d, 0xb1, 0x49, 0x9b, 0x3d, 0xe1, 0x30, 0x8b, 0xbd,
  0xe2, 0x0d, 0x9c, 0xbe, 0x81, 0xd0, 0x9e, 0xbd, 0xf6, 0x55, 0xc5, 0x3b,
  0x47, 0x06, 0xe5, 0x3c, 0xce, 0x2f, 0x5d, 0xbd, 0x9b, 0x80, 0x03, 0xbd,
  0xd7, 0xa8, 0x58, 0xbd, 0x0e, 0x32, 0x29, 0x3e, 0x7a, 0xdc, 0x3c, 0x3c,
  0x22, 0xff, 0xf4, 0x3d, 0x16, 0xd7, 0x09, 0xbe, 0xf4, 0x0c, 0x3d, 0xbd,
  0x15, 0x0a, 0xac, 0xbc, 0x7f, 0xe4, 0xfc, 0xbe, 0xb3, 0xd2, 0x6a, 0x3e,
  0x07, 0x5d, 0x13, 0xbf, 0xcd, 0xf5, 0xca, 0x3c, 0x98, 0x5a, 0xe1, 0xbe,
  0xf7, 0xaa, 0x73, 0x3d, 0xc1, 0x22, 0x44, 0xbe, 0x8d, 0x80, 0x2b, 0x3e,
  0x01, 0xd7, 0x1c, 0xbf, 0x36, 0xf2, 0x0a, 0xbe, 0xe4, 0x95, 0x8c, 0xbd,
  0x50, 0xf3, 0x1b, 0x3d, 0x93, 0xb2, 0xde, 0xbd, 0xb1, 0xc5, 0xf5, 0x3d,
  0x6c, 0x86, 0xa6, 0x3d, 0xec, 0x98, 0x82, 0x3d, 0x30, 0x97, 0x4b, 0xbe,
  0x39, 0xe6, 0xd4, 0xbe, 0x99, 0xc1, 0xaa, 0xbd, 0x8e, 0x68, 0xc6, 0x3d,
  0x91, 0x92, 0x00, 0xbd, 0x2d, 0x5a, 0x52, 0xbe, 0x2e, 0xe0, 0xca, 0xbd,
  0x9f, 0x9c, 0x22, 0xbd, 0x85, 0x74, 0x7c, 0x3d, 0x54, 0xfb, 0x46, 0xbf,
  0x8f, 0xaa, 0x1d, 0xbc, 0xfc, 0x3c, 0xb4, 0xbe, 0xac, 0xfc, 0x76, 0xbe,
  0xaa, 0x4b, 0x98, 0x3e, 0x84, 0x3a, 0xb4, 0x3e, 0x55, 0x33, 0xe5, 0xbd,
  0x1e, 0x47, 0xca, 0x3d, 0x76, 0x36, 0x99, 0xbe, 0xb8, 0x51, 0x95, 0x3c,
  0x74, 0x03, 0x26, 0x3d, 0x60, 0xba, 0xf7, 0xbd, 0x66, 0xc0, 0xfc, 0xbd,
  0x4b, 0x08, 0xb9, 0xbd, 0x7b, 0x08, 0xb0, 0xbd, 0xd2, 0x11, 0xc0, 0x3d,
  0xfa, 0x42, 0x84, 0xbe, 0xfa, 0xbb, 0x98, 0xbe, 0x06, 0xe4, 0x88, 0x3c,
  0xe9, 0xbf, 0x6a, 0xbe, 0x20, 0x19, 0x2c, 0xbe, 0x78, 0x5b, 0x8c, 0xbd,
  0xa2, 0x45, 0x8b, 0x3d, 0xd0, 0x92, 0xbf, 0x3d, 0x42, 0x87, 0x81, 0xbe,
  0x2a, 0x43, 0x9d, 0x3d, 0x6b, 0x1e, 0xca, 0xbd, 0x72, 0xcc, 0xb3, 0xbd,
  0x63, 0x23, 0xd9, 0xbd, 0x6a, 0xb3, 0x3d, 0xbe, 0x75, 0xb3, 0xe1, 0xbd,
  0x04, 0x3d, 0xe3, 0x3d, 0xcb, 0x67, 0x3d, 0xbd, 0x7b, 0x2c, 0xa3, 0xbe,
  0x25, 0xf0, 0xe5, 0xbc, 0x19, 0xcc, 0x7b, 0xbe, 0xb1, 0x45, 0x5a, 0xbe,
  0x95, 0xdb, 0x43, 0xbd, 0x1e, 0x5a, 0xbc, 0x3d, 0x86, 0x05, 0x5d, 0x3d,
  0x64, 0x05, 0xa5, 0xbe, 0x11, 0x80, 0x31, 0x3d, 0x25, 0xef, 0xf9, 0x3d,
  0x44, 0x03, 0x06, 0xbe, 0x5f, 0x7a, 0x26, 0xbe, 0x9b, 0xfb, 0xd6, 0xbe,
  0xed, 0xac, 0x87, 0x3d, 0x7f, 0xfd, 0x7c, 0xbb, 0xcf, 0x45, 0x93, 0xbe,
  0xe1, 0x9a, 0x3d, 0xbe, 0x08, 0x3e, 0x99, 0xbd, 0xa4, 0x8b, 0x72, 0xbe,
  0x62, 0x47, 0xb6, 0xbe, 0x8b, 0x45, 0xef, 0xbc, 0xf9, 0x64, 0xaa, 0x3d,
  0xb3, 0x3d, 0xb4, 0xbd, 0x3f, 0xf5, 0x0e, 0xbf, 0x83, 0x11, 0xa1, 0x3d,
  0x16, 0xb6, 0x65, 0x3e, 0x89, 0xd4, 0x35, 0xbd, 0x19, 0xa3, 0x48, 0x3b,
  0xbf, 0xce, 0xf4, 0xbe, 0xcf, 0xdf, 0x0c, 0x3e, 0xfa, 0x10, 0x30, 0xbd,
  0xcb, 0x37, 0xa7, 0xbd, 0x4a, 0x8d, 0x81, 0xbd, 0x62, 0x1e, 0x11, 0xbe,
  0x96, 0x25, 0x98, 0xbe, 0x0b, 0x37, 0x34, 0x3e, 0x3b, 0x9a, 0x9a, 0xbd,
  0xbd, 0x33, 0x50, 0x3e, 0x0d, 0xec, 0x13, 0x3e, 0x38, 0x8b, 0xb8, 0xbe,
  0xff, 0xe9, 0xd1, 0x3d, 0x63, 0x48, 0xcd, 0x3d, 0x5e, 0x7a, 0xd1, 0xbc,
  0xaa, 0xcd, 0xa0, 0xbe, 0xa0, 0xc7, 0x56, 0xbe, 0x20, 0x7e, 0xee, 0x3c,
  0xd1, 0x14, 0x82, 0xbc, 0xd5, 0xbe, 0x33, 0xbe, 0x6d, 0xc9, 0x5c, 0x3e,
  0xea, 0x32, 0x87, 0xbe, 0x40, 0xdb, 0xbd, 0xbe, 0x9d, 0x8b, 0x75, 0x3e,
  0x1d, 0x44, 0x97, 0x3e, 0x1d, 0x28, 0xbd, 0xbd, 0xe9, 0x73, 0xab, 0xbb,
  0x69, 0x8d, 0xd7, 0xbd, 0x2a, 0x0f, 0x24, 0x3c, 0x9e, 0x62, 0xeb, 0xbc,
  0xb9, 0x7f, 0x58, 0x3e, 0x4b, 0x64, 0x59, 0xbe, 0x81, 0x32, 0x10, 0xbe,
  0x39, 0x9f, 0x03, 0xbe, 0x9a, 0x1e, 0x50, 0xbe, 0xce, 0x5c, 0x70, 0x3c,
  0x70, 0xfa, 0xa4, 0xbe, 0x5a, 0x61, 0x3e, 0xbe, 0xa3, 0x13, 0xfd, 0xbd,
  0x95, 0x79, 0xf2, 0xbd, 0x28, 0xe8, 0x16, 0xbe, 0x19, 0x3c, 0x28, 0xbe,
  0xc2, 0xb8, 0x3c, 0xbe, 0xea, 0x05, 0x99, 0x3b, 0x9d, 0x95, 0x1b, 0xbe,
  0x0f, 0xac, 0x8a, 0x3b, 0x1d, 0x76, 0x65, 0x3e, 0x27, 0x21, 0x92, 0xbe,
  0x38, 0x6f, 0xd0, 0xbd, 0x0d, 0x1a, 0x5b, 0xbe, 0xd9, 0xc5, 0x98, 0xbe,
  0x2f, 0xcc, 0x4c, 0x3b, 0x46, 0xb4, 0x97, 0xbe, 0x3a, 0xd0, 0xca, 0x3d,
  0x52, 0x50, 0x8f, 0xbe, 0x30, 0x5e, 0x2d, 0xbe, 0x92, 0x68, 0xb1, 0xbd,
  0xee, 0x07, 0x8d, 0xbe, 0x20, 0xb1, 0xa8, 0xbe, 0x5b, 0x1d, 0x41, 0x3e,
  0x12, 0x51, 0xe4, 0xbd, 0xba, 0xc7, 0x0f, 0x3e, 0x84, 0x49, 0x4a, 0x3e,
  0xce, 0x4c, 0x90, 0xbc, 0xbe, 0x38, 0xc6, 0xbc, 0x44, 0xad, 0x65, 0xbe,
  0x96, 0xce, 0xb7, 0xbe, 0xfa, 0xf9, 0x3e, 0xbe, 0xef, 0x52, 0x11, 0xbe,
  0x40, 0x75, 0x2e, 0xbe, 0xc9, 0x99, 0x99, 0xbc, 0xa0, 0x7c, 0x06, 0xbb,
  0x26, 0xe6, 0x3e, 0xbe, 0x48, 0x78, 0xa7, 0xbe, 0x88, 0x93, 0xaa, 0xbe,
  0x58, 0x51, 0x6d, 0x3f, 0xb0, 0x69, 0x87, 0xbe, 0x50, 0x67, 0x1f, 0x3e,
  0x1c, 0xd1, 0xc7, 0x3e, 0x98, 0x0b, 0x8e, 0xbd, 0xdf, 0xa9, 0x6f, 0xbe,
  0x79, 0x8e, 0x33, 0xbe, 0x46, 0x25, 0x9d, 0xbe, 0xd1, 0xe9, 0x87, 0x3d,
  0x12, 0x00, 0xa7, 0x3d, 0x29, 0x17, 0x3f, 0x3d, 0x12, 0x00, 0xfc, 0xbc,
  0x1c, 0x44, 0x3a, 0xbe, 0xbc, 0x12, 0x2f, 0x3c, 0x73, 0x6e, 0x77, 0xbe,
  0x5c, 0x43, 0x67, 0xbe, 0xe4, 0xe3, 0x1c, 0xbe, 0x52, 0xf9, 0xbf, 0xbe,
  0xbc, 0xff, 0x68, 0xbe, 0x75, 0x7d, 0x51, 0x3e, 0x2f, 0xcd, 0x92, 0xbd,
  0x0b, 0x1c, 0xf9, 0x3c, 0x97, 0xac, 0x9f, 0xbe, 0xbf, 0xca, 0x70, 0xbe,
  0x2c, 0xf6, 0xab, 0xbd, 0xc4, 0x90, 0xa9, 0xbd, 0x2f, 0x25, 0xab, 0xbd,
  0x62, 0xfb, 0x8d, 0xbe, 0x72, 0x68, 0x8d, 0xbd, 0x3a, 0x24, 0x50, 0xbd,
  0x24, 0x27, 0x21, 0xbe, 0x01, 0x81, 0x24, 0xbe, 0x9a, 0x3c, 0x1c, 0xbe,
  0xc2, 0xca, 0x93, 0xbe, 0x59, 0xff, 0x19, 0xbe, 0x7d, 0xa5, 0xfd, 0x3c,
  0xd1, 0x7b, 0x1a, 0xbe, 0x23, 0x99, 0x56, 0xbe, 0x38, 0x26, 0x8d, 0xbe,
  0xa5, 0xac, 0xbe, 0xbd, 0x53, 0x28, 0x24, 0xbe, 0xce, 0x72, 0xb2, 0xbe,
  0x6b, 0xfb, 0x94, 0xbd, 0x53, 0x1d, 0x4d, 0xbe, 0x1d, 0xaa, 0x9a, 0xbe,
  0xc2, 0x8b, 0x15, 0xbb, 0x46, 0x41, 0x07, 0xbe, 0x48, 0x66, 0xa4, 0xbe,
  0x4a, 0x3f, 0xc0, 0xbd, 0x42, 0x63, 0xab, 0xbe, 0xc6, 0x5d, 0x5b, 0x3c,
  0xe5, 0x22, 0xb3, 0x3e, 0xf7, 0x26, 0x96, 0xbe, 0xcd, 0x8c, 0xd7, 0xbd,
  0xa9, 0x05, 0xe6, 0xbe, 0x84, 0x6b, 0x47, 0xbe, 0x00, 0x01, 0x49, 0xbe,
  0x29, 0xee, 0x36, 0xbd, 0xfa, 0x93, 0xfb, 0xbd, 0x79, 0xf0, 0x21, 0xbe,
  0xf8, 0x2e, 0xf0, 0xbd, 0xf2, 0x99, 0xad, 0xbe, 0xff, 0x53, 0xbd, 0xbd,
  0x61, 0x99, 0x96, 0xbe, 0x75, 0x3d, 0x69, 0xbe, 0x32, 0xc3, 0x75, 0xbd,
  0xe2, 0x4e, 0x41, 0xbd, 0x2e, 0x48, 0xb0, 0xbe, 0x87, 0xa7, 0x67, 0xbe,
  0xb9, 0xe9, 0x0c, 0x3d, 0x6b, 0x19, 0x12, 0xbe, 0x58, 0x9d, 0xdc, 0xbd,
  0x91, 0xe4, 0x76, 0xbc, 0xd7, 0x26, 0x95, 0xbd, 0xbf, 0xa9, 0x1f, 0xbe,
  0xf7, 0xe9, 0xc4, 0xbd, 0x71, 0x14, 0xcb, 0xbd, 0xf8, 0x5f, 0x7a, 0x3d,
  0x8f, 0xf0, 0xe1, 0xbd, 0x96, 0xad, 0x9a, 0xbe, 0x91, 0x78, 0xd2, 0xbd,
  0xe4, 0xa0, 0x81, 0x3d, 0x93, 0xdc, 0xf8, 0x3d, 0x18, 0xb9, 0x04, 0x3d,
  0x2d, 0xd3, 0x0d, 0xbe, 0xbc, 0x71, 0xc8, 0xbc, 0x3b, 0x25, 0x2f, 0x3d,
  0x54, 0x44, 0xde, 0xbd, 0x8b, 0x71, 0x91, 0x3d, 0x2b, 0x4d, 0x1f, 0xbe,
  0x8b, 0xc7, 0x10, 0x3d, 0xee, 0xff, 0x4a, 0xbe, 0xf6, 0xef, 0x68, 0xbe,
  0xa4, 0x3e, 0x12, 0xbe, 0x9a, 0xd2, 0xc5, 0xbd, 0xb7, 0xf4, 0x5e, 0xbe,
  0x34, 0x5c, 0x15, 0xbe, 0x0a, 0x9b, 0x3c, 0xbe, 0x6d, 0x93, 0x10, 0xbe,
  0x1e, 0x39, 0x8d, 0xbe, 0xeb, 0xdc, 0xab, 0x3c, 0xaf, 0x73, 0x87, 0xbd,
  0xed, 0x9c, 0xcb, 0x3d, 0x24, 0x0d, 0xef, 0xbd, 0x80, 0xb5, 0x0b, 0xbe,
  0x5a, 0x62, 0x05, 0xbe, 0x18, 0xe6, 0x35, 0x3e, 0xb7, 0xcf, 0xd6, 0xbd,
  0x6a, 0x3f, 0xa9, 0x3d, 0x48, 0xc2, 0xd4, 0xbd, 0x03, 0xc9, 0x70, 0xbe,
  0x32, 0x2d, 0x77, 0xbd, 0x5b, 0xfe, 0x83, 0xbe, 0xdd, 0x67, 0x5a, 0x3d,
  0x5f, 0x21, 0x55, 0xbe, 0x07, 0xec, 0x9f, 0xbd, 0xef, 0xfc, 0x18, 0xbe,
  0xc9, 0x9d, 0x00, 0xbe, 0x03, 0x74, 0x98, 0xbc, 0x04, 0x85, 0xd9, 0x3c,
  0x81, 0x88, 0x67, 0xbe, 0x10, 0xc5, 0x38, 0xbe, 0x2e, 0xb4, 0xaf, 0x3d,
  0xdd, 0x30, 0x80, 0x3c, 0xcf, 0x86, 0x48, 0xbe, 0xa6, 0x41, 0xc0, 0x3c,
  0xa2, 0x83, 0x80, 0xbe, 0x0a, 0x0d, 0x48, 0x3d, 0xe1, 0xeb, 0x02, 0x3e,
  0x5b, 0xd8, 0x5e, 0xbd, 0x51, 0x5b, 0x04, 0x3e, 0xfd, 0x19, 0x29, 0xbd,
  0x7c, 0x48, 0x69, 0xbe, 0xae, 0x5a, 0x57, 0x3d, 0x62, 0x18, 0x95, 0xbd,
  0x57, 0x26, 0x30, 0xbe, 0xfe, 0x28, 0xbc, 0xbd, 0xdf, 0x78, 0x81, 0xbe,
  0xe0, 0xbd, 0x23, 0xbe, 0x70, 0xab, 0x98, 0xbd, 0x8b, 0x13, 0xd6, 0xbb,
  0x24, 0x39, 0x18, 0xbe, 0x76, 0x67, 0x23, 0xbd, 0x6e, 0xbe, 0x0d, 0xbe,
  0x20, 0x09, 0xb2, 0xbc, 0x9c, 0xd6, 0xf7, 0x3c, 0x3e, 0x74, 0x05, 0x3e,
  0x0a, 0x2d, 0xbe, 0x3d, 0xb5, 0xb7, 0x84, 0x3d, 0x1d, 0x72, 0xa4, 0xbd,
  0x96, 0x6c, 0x8a, 0xbd, 0x0a, 0x67, 0x75, 0x3d, 0xfc, 0x41, 0x5d, 0xbe,
  0x42, 0x7b, 0xa8, 0xbc, 0xdb, 0xff, 0x15, 0xbe, 0x46, 0x56, 0x9b, 0xbd,
  0xd4, 0x48, 0xda, 0xbc, 0x24, 0x97, 0xe0, 0x3d, 0x93, 0x20, 0x9c, 0xbe,
  0xa1, 0x0e, 0x48, 0xbe, 0xe0, 0x65, 0x98, 0xbd, 0x8c, 0x0a, 0x27, 0x3d,
  0xf0, 0x07, 0xa3, 0x3c, 0x1f, 0xcd, 0x1f, 0xbe, 0x28, 0x09, 0x61, 0xbe,
  0xd0, 0xb8, 0x94, 0xbd, 0x81, 0xd4, 0x64, 0xbd, 0xeb, 0x72, 0x34, 0xbd,
  0x1d, 0xae, 0xb7, 0x3b, 0x7b, 0x64, 0x37, 0xbe, 0xfb, 0xbc, 0x08, 0x3d,
  0xd8, 0xe6, 0xb1, 0xbc, 0x3f, 0x51, 0xb3, 0xbd, 0xda, 0x54, 0x45, 0xbe,
  0x94, 0xf0, 0x63, 0xbe, 0x00, 0xb5, 0x76, 0xbe, 0x2b, 0x78, 0x00, 0xbf,
  0x27, 0xaf, 0x69, 0xbe, 0x6d, 0x75, 0xfa, 0xbd, 0xab, 0xfb, 0x01, 0xbe,
  0xd4, 0xe1, 0x0c, 0xbb, 0xe2, 0x04, 0x5f, 0xbe, 0x4f, 0xd2, 0x93, 0x3e,
  0x78, 0x7b, 0xcb, 0xbe, 0xfb, 0x4d, 0xa2, 0x3e, 0xf3, 0xb9, 0x4d, 0x3e,
  0x39, 0xcf, 0x88, 0x3e, 0xe1, 0xda, 0xfe, 0x3d, 0x04, 0x66, 0xd9, 0xbd,
  0x0e, 0xdc, 0x89, 0xbd, 0x24, 0xff, 0xb5, 0xbd, 0x3f, 0xe0, 0x33, 0x3d,
  0x27, 0x48, 0x0d, 0xbe, 0x6e, 0x5a, 0x94, 0xbe, 0x02, 0x05, 0x16, 0xbc,
  0x76, 0x35, 0x39, 0xbe, 0x1b, 0x61, 0x3a, 0xbc, 0x13, 0xf1, 0xa6, 0xbe,
  0x61, 0xec, 0xbd, 0xbd, 0xc4, 0x0d, 0xad, 0xbe, 0x73, 0x1c, 0xf4, 0x3e,
  0x64, 0x2f, 0xc3, 0x3e, 0xe4, 0x9b, 0x9a, 0x3e, 0xce, 0x0f, 0x84, 0xbd,
  0x14, 0xab, 0x83, 0xbe, 0x62, 0x51, 0x16, 0xbf, 0x3d, 0x39, 0x8a, 0x3c,
  0xb1, 0x37, 0x56, 0xbd, 0xed, 0xb6, 0x3d, 0xbe, 0x35, 0x06, 0x5e, 0xbe,
  0x93, 0x81, 0xb3, 0xbb, 0x91, 0x1c, 0xde, 0x3b, 0x24, 0x79, 0xc3, 0xbb,
  0xc6, 0x80, 0xc8, 0xbe, 0x87, 0x07, 0xe3, 0xbd, 0x84, 0x3a, 0x48, 0xbf,
  0x9b, 0x11, 0x0b, 0x3f, 0x1b, 0x7b, 0xaf, 0x3e, 0x53, 0xb4, 0x8e, 0x3e,
  0x06, 0xb4, 0xee, 0xbd, 0x12, 0x1d, 0x81, 0xbe, 0xf6, 0x68, 0x85, 0xbe,
  0x89, 0xa1, 0x02, 0x3e, 0x4e, 0x83, 0x54, 0xbd, 0xb5, 0xd3, 0x65, 0x3c,
  0x41, 0x8b, 0xf3, 0xbd, 0x14, 0xb1, 0xbe, 0xbd, 0x16, 0xd9, 0x61, 0xbe,
  0x1f, 0x8b, 0x8c, 0xbb, 0x1d, 0xeb, 0xab, 0xbe, 0x10, 0xb9, 0xd4, 0xbc,
  0x83, 0x30, 0xe9, 0x3d, 0x30, 0x30, 0x97, 0x3e, 0xc0, 0x5d, 0x42, 0x3e,
  0x9b, 0x0a, 0xe6, 0x3c, 0x5c, 0x4d, 0x89, 0xbd, 0xee, 0x61, 0x24, 0xbd,
  0x12, 0x30, 0x18, 0x3f, 0xf8, 0xf2, 0x30, 0x3e, 0x66, 0x2b, 0x88, 0x3b,
  0x89, 0x71, 0xb5, 0xbe, 0x3d, 0x6c, 0x8e, 0xbd, 0xbb, 0xdb, 0x63, 0xbe,
  0xcf, 0xfd, 0xb6, 0xbd, 0xa3, 0x7f, 0x85, 0xbb, 0xe1, 0xf0, 0x86, 0x3d,
  0xf4, 0xb2, 0x7c, 0xbd, 0x71, 0x5b, 0xf8, 0xbd, 0x55, 0x7a, 0xde, 0x3e,
  0x09, 0x3f, 0xda, 0x3e, 0xdc, 0xa6, 0x86, 0x3d, 0x5f, 0x18, 0xc2, 0xbd,
  0x19, 0xf5, 0x91, 0xbc, 0xa3, 0x11, 0xc4, 0x3e, 0x50, 0x27, 0xab, 0x3e,
  0xa9, 0x1a, 0xbc, 0x3c, 0x23, 0xab, 0x21, 0x3d, 0x1e, 0x08, 0x98, 0xbe,
  0x45, 0x3e, 0x3f, 0x3c, 0xe3, 0x2d, 0x85, 0xbe, 0xb5, 0xed, 0x1e, 0x3c,
  0x1f, 0xcc, 0xb8, 0xbc, 0x03, 0xfc, 0x04, 0xbe, 0x12, 0x58, 0x3a, 0xbe,
  0x24, 0xf6, 0x11, 0x3f, 0x27, 0x5f, 0xc1, 0x3e, 0xf4, 0x62, 0x6f, 0x3e,
  0xbc, 0xe4, 0x28, 0x3c, 0x71, 0xb1, 0xd9, 0xbd, 0x29, 0x36, 0xde, 0xbc,
  0xa8, 0x97, 0x80, 0x3e, 0xcb, 0x50, 0x68, 0x3d, 0x44, 0xd1, 0x34, 0x3e,
  0xa1, 0xe3, 0x2d, 0xbe, 0x61, 0x05, 0x01, 0xbe, 0xbc, 0x4b, 0x06, 0x3e,
  0xb9, 0xd5, 0xac, 0xbb, 0x32, 0xea, 0x40, 0xbd, 0x68, 0xd9, 0xfd, 0xbd,
  0xa4, 0x8b, 0xa3, 0xbe, 0x79, 0x16, 0xf2, 0x3d, 0x06, 0x4f, 0x75, 0x3e,
  0x04, 0x57, 0x31, 0x3c, 0xf1, 0x33, 0x39, 0xbd, 0x37, 0xb6, 0x32, 0xbe,
  0x54, 0x8d, 0x51, 0xbd, 0x94, 0x61, 0x0a, 0xbd, 0xb1, 0xf2, 0x19, 0x3e,
  0x4e, 0x10, 0x01, 0x3d, 0x0d, 0x63, 0x19, 0x3d, 0xaa, 0x58, 0x9d, 0xbe,
  0xab, 0xbb, 0x14, 0x40, 0x90, 0x20, 0x7c, 0xbe, 0x12, 0x12, 0x0a, 0x3e,
  0x56, 0x01, 0x52, 0xbe, 0x71, 0x01, 0xda, 0x3c, 0x43, 0xb6, 0x36, 0x3e,
  0x7e, 0xf2, 0xde, 0x3c, 0x75, 0x0a, 0xe5, 0xbd, 0x18, 0xd7, 0x88, 0x3c,
  0xd6, 0x58, 0xe1, 0xbb, 0x1c, 0xec, 0xc2, 0xbc, 0x95, 0x60, 0x1a, 0xbe,
  0x1a, 0x1d, 0xb2, 0xbc, 0xb5, 0x68, 0x5e, 0xbd, 0xd4, 0x71, 0x80, 0xbc,
  0xe6, 0x32, 0xe5, 0xbd, 0xad, 0x9e, 0x2c, 0x40, 0x9e, 0x88, 0x5f, 0xbd,
  0x65, 0x6e, 0xc0, 0x3d, 0x3d, 0xf6, 0xe4, 0xbd, 0xc7, 0x5a, 0xf0, 0xbb,
  0x7d, 0xc1, 0x27, 0x3e, 0xb5, 0x0f, 0x15, 0xbd, 0x56, 0x8f, 0x1e, 0xbd,
  0x52, 0x83, 0xc6, 0x3d, 0xf2, 0xd4, 0xb8, 0x3d, 0xe6, 0x64, 0xc9, 0xbc,
  0x3e, 0xcd, 0x64, 0xbe, 0x48, 0x56, 0x18, 0xbe, 0xd8, 0x29, 0x8b, 0xbd,
  0xe4, 0x63, 0xdf, 0xbc, 0xae, 0xdb, 0xf5, 0xbd, 0xb5, 0xac, 0x2c, 0x40,
  0xd0, 0x92, 0xe6, 0xbd, 0x9e, 0x1a, 0x5c, 0xbd, 0x3a, 0x4b, 0x9a, 0xbe,
  0x89, 0xd1, 0x0b, 0x3d, 0x2a, 0x37, 0x85, 0x3e, 0xd8, 0xba, 0x62, 0xbe,
  0xe0, 0x0f, 0xcf, 0xbc, 0x90, 0x09, 0xf0, 0xbd, 0x0c, 0x51, 0xd8, 0x3d,
  0xbe, 0x98, 0x27, 0x3e, 0x99, 0x3b, 0x97, 0xbe, 0x11, 0x84, 0x1d, 0xbe,
  0xc0, 0xef, 0xe3, 0x3c, 0x6c, 0x97, 0x06, 0xbc, 0xd5, 0x16, 0x01, 0x3b,
  0xb4, 0xc9, 0x28, 0x40, 0x8c, 0x90, 0x80, 0x3d, 0x56, 0x8d, 0xfb, 0xbd,
  0x07, 0xc4, 0x0b, 0xbf, 0x41, 0x76, 0x19, 0x3c, 0x0c, 0x8f, 0x8a, 0x3c,
  0xdb, 0xbc, 0x24, 0xbe, 0x9d, 0x88, 0xbd, 0xbe, 0x27, 0x8f, 0x1f, 0xbe,
  0xe9, 0x72, 0xfe, 0xbd, 0xf3, 0x73, 0xd6, 0xbc, 0xb7, 0x85, 0x99, 0xbe,
  0x7a, 0xfa, 0x86, 0xbd, 0xb6, 0x7e, 0x1c, 0xbd, 0xc4, 0xa2, 0x0d, 0xbd,
  0x1f, 0xf0, 0xf4, 0xbd, 0x89, 0x04, 0x30, 0x40, 0x01, 0x5f, 0x1d, 0xbd,
  0x59, 0x08, 0x77, 0xbe, 0xb8, 0xa9, 0x6c, 0xbe, 0x6f, 0x5f, 0x4a, 0x3d,
  0xbb, 0x64, 0xcb, 0xbd, 0x44, 0x0f, 0x41, 0x3d, 0x7b, 0x1a, 0x0e, 0xbd,
  0xdb, 0xc4, 0x58, 0xbd, 0xe7, 0xd8, 0xa2, 0xbd, 0x12, 0x32, 0xf9, 0x3c,
  0x0b, 0x02, 0x86, 0xbe, 0x73, 0x93, 0x5e, 0xbd, 0x67, 0x26, 0xdc, 0x3d,
  0xd8, 0x75, 0x1b, 0x3c, 0x49, 0x4b, 0x06, 0xbe, 0x76, 0x39, 0x34, 0x40,
  0x25, 0x20, 0x0f, 0xbd, 0x8b, 0xec, 0x0e, 0xbe, 0xa8, 0xec, 0x0d, 0xbf,
  0x03, 0x81, 0x8f, 0x3c, 0x09, 0xc5, 0xec, 0x3d, 0x8d, 0xa8, 0x51, 0x3d,
  0xde, 0xcb, 0x80, 0x3c, 0x76, 0x05, 0x19, 0x3e, 0xe3, 0x2d, 0x1c, 0xbb,
  0xab, 0x28, 0xbd, 0xbc, 0x95, 0x70, 0x8b, 0xbe, 0x67, 0x23, 0x2b, 0x3d,
  0x66, 0x9b, 0xef, 0xbb, 0x11, 0xca, 0xe8, 0xbd, 0x05, 0xdf, 0x8e, 0xbe,
  0x8d, 0xb2, 0x27, 0x40, 0x4b, 0xb3, 0xb5, 0xba, 0x1c, 0x66, 0xa2, 0x3d,
  0xa7, 0x23, 0xc0, 0xbe, 0x32, 0xaf, 0xd8, 0x3d, 0x1d, 0x3f, 0x93, 0x3d,
  0x63, 0x62, 0xbe, 0x3d, 0x1f, 0xd9, 0x98, 0x3d, 0x8e, 0xaf, 0x48, 0x3e,
  0xae, 0x5c, 0x8d, 0x3d, 0xfb, 0xd3, 0x5e, 0x3c, 0x4e, 0xeb, 0x81, 0xbe,
  0x57, 0xca, 0x81, 0xbe, 0x6e, 0x8c, 0x91, 0xbe, 0xda, 0xd1, 0x48, 0xbe,
  0xf1, 0x4c, 0xc8, 0xbd, 0x7c, 0x0e, 0x7a, 0xbd, 0x07, 0x01, 0xa7, 0xbd,
  0x64, 0x74, 0x17, 0xbe, 0x03, 0xb5, 0xd6, 0xbc, 0x38, 0x1a, 0x01, 0xbf,
  0xe0, 0xd6, 0x30, 0xbe, 0x70, 0xc0, 0xae, 0xbe, 0x07, 0x1a, 0x6d, 0xbe,
  0xac, 0x0d, 0x32, 0xbe, 0x61, 0xb4, 0xa8, 0xbe, 0xfb, 0x0f, 0x42, 0xbe,
  0x36, 0xbe, 0xbd, 0xbd, 0xfd, 0x2e, 0x8d, 0xbe, 0xeb, 0x4b, 0x56, 0xbe,
  0xe2, 0x6a, 0xbf, 0xbe, 0x36, 0xe7, 0x36, 0x3d, 0xee, 0xf1, 0x87, 0x3c,
  0xd5, 0x00, 0x89, 0xbd, 0x07, 0xe6, 0x15, 0xbd, 0x6e, 0x81, 0xf3, 0x3c,
  0x2c, 0x3d, 0x86, 0xbb, 0xbf, 0x9e, 0x77, 0xbe, 0x9d, 0xf0, 0x64, 0xbe,
  0x52, 0x5b, 0x85, 0x3c, 0x6a, 0x5d, 0xf9, 0xbd, 0x8b, 0x96, 0xc0, 0xbd,
  0x02, 0x75, 0x4a, 0xbe, 0xf3, 0xc8, 0x2f, 0xbe, 0xcb, 0x8f, 0xe5, 0xbd,
  0xe6, 0x1f, 0x04, 0xbe, 0x66, 0xf1, 0x81, 0xbe, 0xc3, 0x15, 0x68, 0xbe,
  0xd8, 0x01, 0x82, 0xbd, 0x34, 0xb3, 0x4e, 0xbd, 0x03, 0x14, 0x06, 0xbe,
  0xcb, 0x0d, 0x2d, 0x3d, 0xe6, 0x8f, 0x8a, 0xbe, 0xa8, 0x9e, 0x0f, 0xbd,
  0xc0, 0x48, 0x50, 0xbc, 0x33, 0xab, 0x29, 0xbb, 0xe4, 0x10, 0x80, 0xbd,
  0xbc, 0x9d, 0x10, 0x3e, 0xa0, 0x24, 0xa8, 0xbd, 0x7b, 0x44, 0x87, 0xbe,
  0x39, 0x6a, 0x94, 0xbe, 0x08, 0xa2, 0x42, 0xbd, 0xd5, 0xc2, 0x17, 0xbe,
  0xcc, 0x16, 0x08, 0x3e, 0x13, 0x86, 0xb2, 0x3d, 0x5d, 0x75, 0x6e, 0xbd,
  0xfb, 0x49, 0x43, 0xbe, 0xe2, 0xd2, 0x0d, 0xbe, 0x44, 0xd6, 0xd9, 0xbd,
  0x76, 0x4a, 0xfa, 0x3c, 0x18, 0xd3, 0x8a, 0x3d, 0x37, 0x8d, 0x2c, 0xbe,
  0xa2, 0x55, 0x03, 0xbd, 0xfd, 0x9e, 0x70, 0xbe, 0xdf, 0x26, 0xec, 0xbd,
  0xa8, 0x16, 0xe6, 0xbd, 0x61, 0x1e, 0x81, 0xbe, 0x26, 0x17, 0x8e, 0xbe,
  0xdf, 0xcc, 0x94, 0xbd, 0xb4, 0x9b, 0x7f, 0x3d, 0xdd, 0xa9, 0x52, 0xbe,
  0xac, 0x5a, 0x12, 0xbd, 0xcd, 0x08, 0x57, 0xbd, 0xdd, 0x82, 0xb0, 0xbd,
  0x74, 0xf0, 0xa9, 0xbe, 0x33, 0xaf, 0x2a, 0xbe, 0x7f, 0xf9, 0xa1, 0x3d,
  0xed, 0xb5, 0xff, 0xbd, 0x3c, 0x84, 0x9e, 0x3d, 0x69, 0xaa, 0x9a, 0xbe,
  0x20, 0x97, 0x4a, 0xbc, 0x59, 0x26, 0x0a, 0x3e, 0x90, 0xf1, 0x23, 0x3d,
  0xae, 0xab, 0x93, 0x3c, 0xc9, 0xce, 0xb0, 0xbc, 0x41, 0xc7, 0xea, 0x3c,
  0x33, 0x04, 0xf6, 0xbc, 0x71, 0x94, 0xe5, 0x3d, 0x3e, 0xf0, 0x76, 0xbd,
  0xc3, 0x3c, 0x12, 0x3e, 0x5e, 0x8e, 0xf1, 0xbd, 0x5d, 0x9d, 0x65, 0x3e,
  0xd0, 0x45, 0x6d, 0x3e, 0xbb, 0x66, 0x05, 0x3d, 0x8a, 0xf9, 0x57, 0x3e,
  0xe9, 0xdf, 0x98, 0x3d, 0xe4, 0x72, 0xf3, 0x3d, 0x16, 0x6d, 0x51, 0x3e,
  0x6d, 0xa9, 0xa9, 0x39, 0xcb, 0x62, 0x80, 0xbd, 0xc4, 0x43, 0x38, 0x3b,
  0xa8, 0x5a, 0xba, 0xbd, 0x44, 0x37, 0x92, 0xbd, 0xe8, 0x43, 0x31, 0xbd,
  0x3e, 0x7d, 0x19, 0xbe, 0x47, 0xc9, 0xfd, 0xba, 0x08, 0xc8, 0x9e, 0xbe,
  0x15, 0xb1, 0x14, 0x3e, 0x38, 0x24, 0xe4, 0xbd, 0x82, 0x95, 0x9a, 0x3d,
  0x93, 0xc8, 0xa8, 0xbb, 0x99, 0xc3, 0x9f, 0xbd, 0xe5, 0x2e, 0x58, 0xbe,
  0xc0, 0x21, 0xa1, 0xbe, 0x28, 0x9c, 0x84, 0x3c, 0x64, 0x95, 0xb1, 0x3d,
  0x45, 0xaf, 0x72, 0xbe, 0x6d, 0xf4, 0xf6, 0xbd, 0xcb, 0xd1, 0xcb, 0xbd,
  0x1d, 0x5b, 0x2e, 0xbe, 0x4b, 0x48, 0x87, 0x3d, 0xd3, 0x80, 0x03, 0xbf,
  0x18, 0xf5, 0xc1, 0xbb, 0x87, 0x60, 0x21, 0x3e, 0x8c, 0x06, 0x5d, 0x3d,
  0x0f, 0x05, 0x16, 0xbd, 0xf5, 0x1f, 0x49, 0x3e, 0xd2, 0x0d, 0xc2, 0x3d,
  0x0c, 0x0c, 0xd0, 0xbd, 0x35, 0xca, 0x38, 0x3b, 0xa4, 0x0f, 0xb8, 0xbe,
  0xd9, 0xad, 0x00, 0x3e, 0x0c, 0x2e, 0xe1, 0xbd, 0xa6, 0xc0, 0x8a, 0xbd,
  0x4c, 0x9f, 0x62, 0xbe, 0xac, 0x20, 0x7d, 0xbe, 0x66, 0xf7, 0x1a, 0x3c,
  0x19, 0xd1, 0x86, 0xbe, 0xab, 0xe0, 0xd6, 0xbc, 0xc9, 0x3a, 0x88, 0x3e,
  0x11, 0x49, 0x00, 0xbf, 0xf0, 0xaf, 0x12, 0x3d, 0xa6, 0x44, 0x63, 0xbe,
  0x07, 0xa9, 0x53, 0x3e, 0x7b, 0x5f, 0x67, 0x3d, 0x28, 0x16, 0xff, 0xbe,
  0x6e, 0x61, 0x6b, 0xbe, 0xbc, 0xd4, 0x9a, 0x3d, 0x46, 0x35, 0xb2, 0xbd,
  0x83, 0x67, 0x28, 0xbe, 0x9c, 0x97, 0xd7, 0xbd, 0xc3, 0x3a, 0xd4, 0xbe,
  0x25, 0x3c, 0x03, 0xbe, 0xfc, 0x1e, 0x37, 0xbf, 0x74, 0xf1, 0xc7, 0xbb,
  0x40, 0xe3, 0xf6, 0xbd, 0xee, 0x89, 0xa9, 0xbe, 0xd0, 0xf1, 0x3c, 0xbe,
  0x73, 0xff, 0x81, 0xbe, 0x8f, 0x16, 0x99, 0xbe, 0x30, 0x3f, 0xa7, 0xbe,
  0x15, 0x9b, 0xe9, 0xbe, 0xaa, 0x90, 0xa4, 0xbc, 0x26, 0xdf, 0x42, 0x3d,
  0x72, 0xd5, 0x47, 0xbe, 0xdd, 0x41, 0xe0, 0xbd, 0x3b, 0x8d, 0x43, 0xbe,
  0xff, 0x68, 0x82, 0xbe, 0x81, 0x95, 0x1c, 0xbc, 0x93, 0x9d, 0x09, 0xbf,
  0x8a, 0xc2, 0xf8, 0xbb, 0x6b, 0x93, 0x8e, 0xbd, 0x95, 0x89, 0x00, 0xbe,
  0xf3, 0x3a, 0x30, 0xbe, 0x9b, 0x10, 0x3d, 0xbb, 0xc0, 0xf2, 0xac, 0xbd,
  0x9e, 0x6f, 0x1a, 0xbe, 0x2f, 0x51, 0xc0, 0xbe, 0x32, 0x0d, 0x5e, 0xbc,
  0xb2, 0xc0, 0x99, 0x3d, 0xd0, 0xe8, 0x61, 0xbe, 0xfc, 0x67, 0xd1, 0xbd,
  0x6a, 0x87, 0x91, 0xbd, 0xb6, 0x3c, 0x96, 0xbe, 0x5d, 0x76, 0xba, 0xbc,
  0x60, 0x8c, 0xf9, 0xbe, 0xf0, 0xea, 0x71, 0xbd, 0x68, 0x55, 0x89, 0xbd,
  0xa8, 0x2d, 0x02, 0x3e, 0xc4, 0x23, 0x7f, 0x3c, 0xa7, 0x1f, 0xab, 0xbc,
  0x6b, 0x1b, 0xd2, 0xbd, 0xa5, 0xf1, 0xb0, 0xbe, 0x72, 0x0d, 0xae, 0xbe,
  0x50, 0x72, 0x01, 0x3e, 0xd7, 0x7c, 0x93, 0xba, 0x73, 0x11, 0x90, 0xbe,
  0xd4, 0xd1, 0x6e, 0x3c, 0x3b, 0xf5, 0x1f, 0xbe, 0xe2, 0x99, 0x10, 0xbe,
  0x34, 0x14, 0x74, 0x3c, 0x08, 0x40, 0x19, 0xbf, 0x08, 0xf1, 0x04, 0x3d,
  0xb1, 0xfe, 0x37, 0x3e, 0x55, 0xdb, 0x19, 0x3e, 0x85, 0xa9, 0xca, 0xbd,
  0x3e, 0x57, 0xa2, 0x3d, 0xa8, 0x84, 0x0e, 0xbd, 0x7e, 0x3e, 0xc9, 0xbe,
  0xfd, 0xdc, 0x93, 0xbe, 0xe6, 0xfe, 0x96, 0x3e, 0xf1, 0x88, 0x21, 0x3d,
  0xaf, 0x22, 0x1a, 0xbf, 0x79, 0xaa, 0x23, 0xbf, 0x19, 0x0a, 0x84, 0xbe,
  0x42, 0xd3, 0x0d, 0xbe, 0x5f, 0xd4, 0x9e, 0x3d, 0x62, 0xcf, 0x84, 0xbe,
  0xc1, 0x9d, 0x87, 0x3d, 0x38, 0x1c, 0xa5, 0x3d, 0x2c, 0xcb, 0x98, 0x3e,
  0xde, 0xe6, 0xd1, 0x3c, 0x0f, 0xcc, 0x16, 0x3e, 0x84, 0x78, 0x54, 0x3e,
  0x9c, 0xf5, 0xb0, 0xbb, 0x3c, 0xfd, 0xb0, 0xbe, 0x41, 0x6c, 0x1d, 0xbe,
  0x0b, 0xa8, 0xd7, 0xbd, 0x52, 0x7b, 0x9d, 0x3d, 0x51, 0xa4, 0x7b, 0xbd,
  0xf6, 0x4f, 0xe9, 0xbd, 0x52, 0x48, 0x90, 0xbe, 0x70, 0xd4, 0xd8, 0xbc,
  0x68, 0x17, 0x2a, 0xbe, 0x6c, 0x7a, 0x55, 0xbe, 0x7d, 0x9f, 0xd1, 0x3d,
  0xba, 0x22, 0x32, 0xbe, 0x6b, 0xc4, 0x08, 0xbd, 0xff, 0x76, 0x0e, 0xbe,
  0x20, 0xd0, 0x8c, 0xbd, 0x0b, 0xf1, 0x2c, 0x3d, 0xd1, 0x03, 0x84, 0xbe,
  0x85, 0x7a, 0x7c, 0xbe, 0x67, 0xad, 0x58, 0x3d, 0xa8, 0x13, 0xcf, 0xbd,
  0xbb, 0x69, 0x08, 0xbc, 0x62, 0xb2, 0x8e, 0xbd, 0x04, 0xc5, 0x6d, 0xbd,
  0x06, 0xd0, 0xea, 0xbd, 0x96, 0x98, 0xe8, 0x3d, 0xdc, 0x4c, 0xb6, 0xbe,
  0x07, 0xa6, 0x0c, 0xbd, 0x72, 0xd3, 0x26, 0xbc, 0x83, 0x2b, 0x46, 0x3e,
  0xce, 0xd5, 0x3f, 0x3d, 0x21, 0xf1, 0x8e, 0xbe, 0xb5, 0xf2, 0x83, 0xbd,
  0x7f, 0xd4, 0x15, 0xbb, 0x73, 0x14, 0x97, 0xbe, 0xe3, 0xe7, 0xd3, 0xbd,
  0x9c, 0x1b, 0x7b, 0xbd, 0x96, 0x67, 0xaf, 0x3c, 0x39, 0xb0, 0x94, 0xbe,
  0x02, 0xc1, 0xb5, 0xbb, 0x81, 0x0d, 0x98, 0x3c, 0x99, 0xa4, 0x0a, 0xbe,
  0xf3, 0x1b, 0xe5, 0xbd, 0xf5, 0xb3, 0xa8, 0x3d, 0x6e, 0x70, 0xba, 0x3d,
  0x50, 0x31, 0x98, 0x3d, 0xce, 0xbb, 0x33, 0xbe, 0x5b, 0xb1, 0x9d, 0x3d,
  0xe1, 0x9c, 0xb7, 0x3d, 0x3e, 0x86, 0xd7, 0x3c, 0x13, 0x21, 0x6f, 0xbe,
  0xa3, 0x65, 0x95, 0xbe, 0x09, 0x74, 0xfb, 0xbc, 0x7d, 0xe8, 0x14, 0xbb,
  0x1b, 0x07, 0xd9, 0xbd, 0x7d, 0xcd, 0x1d, 0xbe, 0x40, 0xaf, 0xa5, 0xbd,
  0xf7, 0x9e, 0x7b, 0xbe, 0xef, 0x37, 0x91, 0xbe, 0x20, 0x13, 0xc6, 0x3b,
  0xbc, 0xc5, 0xfd, 0xbc, 0x38, 0x5a, 0xd6, 0xbb, 0x6b, 0x90, 0xad, 0x3d,
  0x3b, 0xb1, 0x87, 0xbe, 0x5d, 0x80, 0x94, 0x3d, 0x3c, 0x48, 0x72, 0xbe,
  0x13, 0x86, 0x68, 0xbe, 0x3b, 0x32, 0xae, 0xbe, 0x25, 0x71, 0xb8, 0x3c,
  0x95, 0x45, 0x30, 0x3d, 0x5a, 0x21, 0x09, 0xbe, 0x71, 0x6b, 0xe4, 0xbd,
  0xa8, 0xf6, 0x29, 0xbe, 0x63, 0xb8, 0x56, 0xbc, 0x18, 0x9a, 0x3d, 0xbe,
  0xea, 0x79, 0x51, 0x3e, 0x0b, 0x39, 0x3f, 0xbd, 0x34, 0xda, 0x3d, 0xb8,
  0xc2, 0x15, 0x7a, 0x3d, 0x8a, 0xff, 0x53, 0xbe, 0x02, 0x12, 0xcf, 0x3c,
  0xcc, 0x48, 0x2f, 0x3d, 0x2f, 0x44, 0xd5, 0xbd, 0x5a, 0x28, 0x59, 0xbd,
  0xab, 0xd8, 0x4e, 0xbe, 0xe8, 0x5e, 0xc9, 0x3d, 0xa9, 0xc0, 0x5f, 0xbe,
  0xf9, 0x1b, 0x6e, 0xbe, 0xef, 0x84, 0xd4, 0x3d, 0x41, 0xfc, 0x32, 0xbe,
  0x61, 0xc0, 0x60, 0xbb, 0x9e, 0xb1, 0xc8, 0x3d, 0x54, 0x74, 0xec, 0xb9,
  0x9f, 0x3d, 0x1d, 0x3e, 0x47, 0x93, 0x66, 0xbd, 0xf0, 0xc4, 0x4a, 0xbe,
  0xb7, 0x44, 0xb3, 0xbd, 0x09, 0xb1, 0xa6, 0xbd, 0x3b, 0x1a, 0x06, 0xbe,
  0x39, 0xc0, 0x19, 0xbe, 0xd9, 0xe8, 0x60, 0xbe, 0xee, 0x7f, 0xd6, 0xbd,
  0xb9, 0x06, 0xf9, 0xbd, 0xce, 0x8a, 0x80, 0xbd, 0x9e, 0x89, 0x9f, 0xbd,
  0x08, 0xce, 0x0b, 0xbe, 0xf0, 0x30, 0x9c, 0xbd, 0x31, 0x60, 0xc9, 0xbc,
  0x53, 0xd3, 0x9e, 0x3d, 0x90, 0xec, 0x01, 0x3d, 0x9b, 0xc8, 0x52, 0xbe,
  0x2d, 0x97, 0xed, 0xbd, 0x2a, 0xd7, 0x91, 0xbe, 0x87, 0x21, 0x8a, 0xbe,
  0xd9, 0xa9, 0xaa, 0xbc, 0xb0, 0xb8, 0x3c, 0x3d, 0xc7, 0xcb, 0xf9, 0xbc,
  0xea, 0x2e, 0x13, 0xbe, 0xae, 0xeb, 0x09, 0xbe, 0x41, 0x55, 0xe8, 0xbc,
  0x1c, 0xe9, 0x72, 0xbe, 0x3d, 0x94, 0xa1, 0xbd, 0xb0, 0x8b, 0x23, 0xbe,
  0x0b, 0x7f, 0xb9, 0xbc, 0x33, 0x4f, 0x09, 0x3d, 0x6e, 0x99, 0x53, 0xbd,
  0x8a, 0xbb, 0x3d, 0xbd, 0x31, 0x39, 0x3a, 0xbe, 0xb8, 0x81, 0x55, 0xbe,
  0x3a, 0xe0, 0x8c, 0xbe, 0xbf, 0x7e, 0x35, 0xbe, 0xb4, 0xd4, 0xb8, 0xbd,
  0xe2, 0x43, 0x81, 0xbd, 0x37, 0xe6, 0x57, 0x3d, 0x8c, 0xd7, 0x9e, 0xbd,
  0x2c, 0x84, 0x25, 0xbe, 0xeb, 0xb5, 0x05, 0xbe, 0xa5, 0x23, 0x62, 0xbe,
  0x55, 0x5a, 0x26, 0xbd, 0x25, 0x79, 0x56, 0xbe, 0xab, 0x53, 0xf5, 0x3d,
  0xd5, 0xaa, 0x8c, 0xbd, 0xd4, 0xc2, 0xa7, 0xbd, 0x39, 0x6b, 0x84, 0xbd,
  0xec, 0xd3, 0xae, 0xbd, 0x8a, 0x73, 0x41, 0xbe, 0xed, 0x13, 0x15, 0xbe,
  0x96, 0x46, 0x20, 0x3d, 0x4a, 0x81, 0xbe, 0x3b, 0x6d, 0x05, 0x3e, 0xbe,
  0x88, 0xd7, 0x08, 0xbd, 0x58, 0x8b, 0x49, 0xbe, 0x21, 0xd6, 0x9f, 0xbd,
  0x89, 0xc6, 0xcd, 0xbd, 0x36, 0xb9, 0x8f, 0xbe, 0xef, 0xf2, 0x5c, 0xbe,
  0x80, 0xdb, 0xaa, 0xbd, 0x24, 0x4e, 0x41, 0x3e, 0xc4, 0xae, 0x05, 0x3c,
  0x9e, 0x19, 0x67, 0xbe, 0x33, 0x7b, 0x5b, 0x3d, 0xeb, 0x23, 0xa5, 0x3d,
  0xce, 0xcd, 0x16, 0xbe, 0xe0, 0xde, 0x49, 0xbe, 0xda, 0xa8, 0x69, 0xbc,
  0xc8, 0x27, 0x17, 0x3e, 0x74, 0x94, 0x4f, 0xbd, 0xba, 0x77, 0x95, 0xbd,
  0xc1, 0xdc, 0x22, 0xbe, 0xf6, 0xc8, 0x3e, 0x3e, 0x72, 0xee, 0x56, 0xbc,
  0x19, 0xb3, 0x13, 0xbe, 0xdc, 0x65, 0xed, 0xbd, 0x00, 0x9a, 0xd6, 0xbb,
  0x9f, 0xd7, 0x61, 0xbe, 0x80, 0xb1, 0x7f, 0xbe, 0x85, 0x53, 0xcf, 0xbd,
  0x38, 0x6f, 0xdd, 0xbd, 0x66, 0x40, 0x94, 0xbe, 0xd8, 0xbd, 0x93, 0xbe,
  0xd5, 0x58, 0xad, 0xbd, 0x26, 0xaf, 0x92, 0xbb, 0xf4, 0xce, 0x26, 0xbd,
  0x27, 0xa4, 0x07, 0xbe, 0x08, 0x2c, 0x52, 0xbb, 0x85, 0x57, 0x0a, 0xbe,
  0x0b, 0x01, 0x3c, 0xbe, 0xea, 0xae, 0x7b, 0x3d, 0x72, 0x75, 0x07, 0x3e,
  0xd5, 0xb1, 0x47, 0xbd, 0x22, 0x9a, 0x82, 0x3c, 0x24, 0xe9, 0x62, 0xbd,
  0x4c, 0x6b, 0x85, 0x3d, 0x95, 0x56, 0x73, 0xbd, 0x5c, 0xb2, 0x0a, 0xbe,
  0x00, 0x03, 0xad, 0xbd, 0xf0, 0x76, 0x6f, 0xbe, 0xa2, 0x03, 0x5c, 0xbe,
  0x11, 0x6d, 0x21, 0xbe, 0x2c, 0x42, 0x83, 0xbe, 0x44, 0x56, 0x28, 0x3e,
  0x08, 0xc9, 0x96, 0xbe, 0x38, 0xe2, 0x02, 0x3e, 0xe8, 0x9a, 0x84, 0xbe,
  0x5e, 0xcd, 0x25, 0xbe, 0x60, 0xe4, 0x6d, 0x3d, 0x93, 0x7f, 0x69, 0xbe,
  0x40, 0x1f, 0x94, 0xbe, 0x54, 0x07, 0xe7, 0xbd, 0x2e, 0x5f, 0x07, 0xbd,
  0xd5, 0xb2, 0xb2, 0xbd, 0xce, 0x12, 0x53, 0xbc, 0xa8, 0x34, 0x8a, 0x3d,
  0xb4, 0x18, 0xd2, 0xbd, 0xba, 0xce, 0x1a, 0xbe, 0x41, 0x91, 0x70, 0x3d,
  0x30, 0x6a, 0xc3, 0xbd, 0x64, 0x65, 0x3d, 0x3d, 0x15, 0x28, 0xe7, 0xbd,
  0xd1, 0xa7, 0x0d, 0xbc, 0x56, 0xf4, 0xa2, 0xbc, 0x2e, 0x35, 0xb0, 0x3c,
  0x9f, 0x6a, 0x97, 0xbe, 0x82, 0xcd, 0xdc, 0xbd, 0x59, 0x31, 0x0d, 0xbe,
  0xc1, 0x7a, 0xba, 0xbd, 0x86, 0x01, 0xcb, 0xbd, 0x16, 0xb9, 0xcc, 0x3d,
  0xec, 0x75, 0xf9, 0x3e, 0x2b, 0x0a, 0xad, 0x3d, 0x7f, 0xf7, 0x19, 0xbe,
  0x89, 0x67, 0xdb, 0xbd, 0x00, 0xf4, 0x2e, 0x3d, 0x18, 0x14, 0xc9, 0xbe,
  0x56, 0xb0, 0x09, 0xbe, 0x0c, 0x6f, 0x49, 0xbe, 0x1a, 0x40, 0x8c, 0xbe,
  0xe1, 0x1c, 0x7e, 0xbd, 0xb6, 0xcb, 0x53, 0xbe, 0x5c, 0x85, 0x90, 0xbe,
  0xa2, 0x5c, 0x00, 0x3e, 0x83, 0xf1, 0x75, 0xbe, 0xbf, 0x64, 0x98, 0xbd,
  0xa5, 0xbf, 0x57, 0x3e, 0xd4, 0xbc, 0x43, 0x3e, 0xe3, 0x52, 0x15, 0xbe,
  0x91, 0x00, 0xcb, 0x3c, 0xe7, 0x2d, 0x5e, 0xbc, 0x6f, 0x53, 0xad, 0xbd,
  0xe7, 0x0b, 0x90, 0xbe, 0x85, 0xd4, 0x2c, 0xbe, 0x4b, 0x9e, 0x22, 0xbd,
  0xac, 0x67, 0x1c, 0xbe, 0xd0, 0xb6, 0x45, 0xbe, 0xf1, 0x42, 0x0a, 0xbe,
  0xe6, 0xd1, 0x5e, 0xbe, 0xe5, 0x77, 0xdf, 0x3d, 0xde, 0x84, 0x45, 0x3e,
  0x37, 0x5f, 0xd5, 0x3c, 0x15, 0x6b, 0x67, 0x3e, 0xda, 0xcb, 0x21, 0x3d,
  0x7b, 0x1e, 0x2c, 0x3e, 0xf8, 0x15, 0xeb, 0xbd, 0x28, 0x93, 0x10, 0xbd,
  0x21, 0xb9, 0x55, 0xbe, 0x37, 0x17, 0xbc, 0xbd, 0x20, 0x8e, 0xae, 0xbe,
  0x68, 0x3f, 0x3b, 0xbe, 0xb4, 0x8c, 0x0b, 0xbc, 0x0a, 0xa5, 0x60, 0x3e,
  0x68, 0xf6, 0x88, 0xbe, 0x67, 0x35, 0x18, 0xbc, 0xd4, 0x5f, 0x60, 0x3e,
  0x81, 0x8a, 0x9f, 0x3d, 0xaf, 0x58, 0x76, 0x3d, 0x1f, 0x8e, 0x5d, 0x3e,
  0x88, 0xd1, 0x88, 0x3d, 0x13, 0xf1, 0x2e, 0x3e, 0x3f, 0xd2, 0x86, 0x3d,
  0x0d, 0xd3, 0xd3, 0xbc, 0xb3, 0x20, 0x88, 0xbe, 0xf1, 0xdb, 0x1c, 0xbd,
  0xa3, 0x05, 0x58, 0xbe, 0x78, 0x50, 0x7d, 0x3e, 0xb8, 0x38, 0x33, 0x3c,
  0x47, 0x42, 0xc1, 0xbd, 0x11, 0x1c, 0x15, 0xbe, 0x95, 0x0a, 0x5d, 0xbd,
  0x41, 0x34, 0xc7, 0x3e, 0xbe, 0xf6, 0xc3, 0xbc, 0xf9, 0x9f, 0xbc, 0xbe,
  0x0b, 0xa4, 0x9a, 0xbd, 0xbb, 0x53, 0x1d, 0x3e, 0x31, 0xfa, 0x05, 0xbe,
  0x80, 0xa5, 0xb4, 0x3c, 0x2d, 0xf3, 0x93, 0xbd, 0x31, 0xf0, 0xed, 0xbd,
  0xd1, 0x51, 0x44, 0x3d, 0xce, 0x57, 0x46, 0x3c, 0x77, 0x64, 0x85, 0xbd,
  0xa4, 0xe4, 0x54, 0x3b, 0x99, 0xdc, 0x5b, 0x3d, 0xa2, 0x27, 0x08, 0xbe,
  0x63, 0xe7, 0x7c, 0x3d, 0xa0, 0x37, 0x81, 0x3e, 0xc1, 0x76, 0x37, 0x3e,
  0x89, 0xa0, 0x4e, 0xbd, 0x2b, 0x8e, 0xd9, 0x3d, 0x08, 0x83, 0x6a, 0x3e,
  0x92, 0xfd, 0xe9, 0x3d, 0x59, 0xb6, 0x28, 0xbe, 0x9f, 0x8d, 0xa5, 0x3d,
  0x39, 0xde, 0x6c, 0x3d, 0x74, 0xb2, 0x3f, 0xbe, 0xa5, 0x4a, 0x5d, 0xbe,
  0x51, 0xb4, 0xb4, 0x3c, 0xcd, 0xfa, 0x7a, 0xbe, 0x13, 0xad, 0x1b, 0xbe,
  0xc4, 0xeb, 0x83, 0xbe, 0xc8, 0x67, 0x13, 0xbd, 0xc8, 0xff, 0xdf, 0x3e,
  0xa8, 0xf1, 0x3a, 0x3e, 0x17, 0x1a, 0x22, 0xbd, 0x5e, 0x63, 0x7a, 0x3d,
  0xdb, 0xd8, 0xf0, 0x3d, 0xff, 0xb1, 0x26, 0x3c, 0xf3, 0xa5, 0x02, 0xbd,
  0xc0, 0x54, 0x84, 0xbd, 0xb5, 0x4b, 0xc0, 0xbe, 0x9b, 0x40, 0x89, 0xbd,
  0xe7, 0x3f, 0x36, 0xbe, 0x18, 0x45, 0xcb, 0xbc, 0xab, 0x9e, 0x04, 0xbe,
  0xd4, 0xdb, 0xd5, 0xbd, 0x72, 0x91, 0x17, 0xbd, 0x6e, 0xc1, 0x61, 0xbe,
  0x9c, 0xc4, 0x90, 0xbb, 0xcf, 0x0e, 0x16, 0xbd, 0x26, 0xbc, 0x13, 0x3e,
  0x2f, 0xdc, 0x32, 0x3c, 0x50, 0xe6, 0x32, 0xbd, 0x94, 0xfd, 0x07, 0xbe,
  0x4e, 0x3a, 0x02, 0xbd, 0x13, 0x50, 0x77, 0xbd, 0xee, 0x8f, 0xac, 0x3e,
  0x13, 0x51, 0x72, 0xbe, 0x2c, 0x26, 0x0f, 0x3d, 0xfe, 0xe8, 0x6e, 0x3d,
  0x0b, 0x31, 0xb9, 0x3d, 0x00, 0x44, 0x89, 0xbe, 0xc6, 0xfb, 0xc7, 0x3d,
  0xf0, 0x9d, 0x4d, 0x3d, 0xa5, 0xf5, 0xe7, 0xbd, 0x4b, 0xb3, 0x13, 0xbd,
  0x52, 0xc8, 0xa7, 0xbd, 0x93, 0xe5, 0x79, 0xbe, 0x31, 0x05, 0xe6, 0x3d,
  0x6f, 0xa3, 0x46, 0xbe, 0x56, 0x73, 0x2d, 0xbe, 0xa5, 0xcb, 0x07, 0xbf,
  0xc8, 0x38, 0x78, 0x3e, 0x3b, 0x09, 0x66, 0x3c, 0x2c, 0xe5, 0xba, 0xbd,
  0x01, 0xb7, 0x04, 0x3d, 0x24, 0x4b, 0xff, 0x3c, 0xf7, 0x55, 0xd2, 0x3d,
  0xbe, 0x39, 0x15, 0xbd, 0x00, 0xa0, 0x21, 0xbe, 0xc1, 0xda, 0xf1, 0x3d,
  0x32, 0x19, 0xde, 0x3d, 0xc5, 0x32, 0x61, 0xbe, 0x19, 0x9e, 0x9b, 0xbd,
  0xc9, 0x86, 0xc6, 0x3d, 0x54, 0x50, 0x44, 0xbe, 0xe6, 0xbe, 0x12, 0x3d,
  0x6d, 0x3e, 0x24, 0xbe, 0x12, 0x12, 0x21, 0x3d, 0x53, 0xc2, 0xe7, 0x3d,
  0x30, 0x2c, 0xf4, 0x3c, 0xa1, 0xd1, 0x89, 0x3d, 0x5f, 0x93, 0x49, 0xbe,
  0x6b, 0x2c, 0x3f, 0xbe, 0xac, 0x50, 0x2c, 0xbe, 0xba, 0x05, 0xe5, 0xbd,
  0xa5, 0xb1, 0xbd, 0xbe, 0xf2, 0x90, 0x55, 0xbd, 0x41, 0x7f, 0x83, 0x3c,
  0xc7, 0x99, 0x5e, 0xbe, 0xf9, 0x23, 0x0e, 0xbe, 0xf3, 0xdd, 0xa4, 0xbd,
  0x10, 0xb7, 0x72, 0xbe, 0xe7, 0x2d, 0x7e, 0xbe, 0xed, 0x86, 0x1a, 0x3d,
  0x94, 0xe2, 0x29, 0x3d, 0x92, 0xc4, 0x7c, 0x3d, 0xbd, 0x88, 0xdb, 0xbb,
  0x58, 0x5e, 0xaa, 0xbd, 0x1c, 0xef, 0xbd, 0xbc, 0x5a, 0xdf, 0x5e, 0xbe,
  0x56, 0x26, 0x6b, 0xbe, 0x4e, 0x2e, 0xda, 0xbe, 0xff, 0xe7, 0x4b, 0xbe,
  0xa6, 0xda, 0x36, 0xbe, 0x52, 0xdf, 0xe0, 0xbd, 0xe0, 0xd5, 0xc0, 0xbc,
  0xf9, 0xd4, 0x9b, 0xbd, 0xd6, 0xfb, 0x01, 0xbe, 0x12, 0xa9, 0x9b, 0xbe,
  0x76, 0xd8, 0x7f, 0xbc, 0x94, 0x90, 0x8f, 0xbd, 0x00, 0xf4, 0x88, 0x3d,
  0x22, 0x0f, 0x15, 0xbe, 0xdd, 0xea, 0x0e, 0xbe, 0x8d, 0x6f, 0x8f, 0xbe,
  0x39, 0xa7, 0x85, 0xbe, 0x3d, 0x52, 0x90, 0xbe, 0x62, 0xf9, 0x11, 0xbe,
  0x2a, 0xfa, 0x30, 0x3d, 0xcf, 0x50, 0xbd, 0xbd, 0x9d, 0xe4, 0x24, 0xbe,
  0x0b, 0x8c, 0x8f, 0xbd, 0x64, 0xdc, 0x19, 0xbb, 0xcb, 0x2e, 0x40, 0xbd,
  0x01, 0x41, 0x62, 0xbd, 0xcf, 0xeb, 0x18, 0x3d, 0xf7, 0xa0, 0x85, 0x3c,
  0x1f, 0x98, 0x0d, 0xbe, 0xe5, 0xac, 0x92, 0xbe, 0xf5, 0x9b, 0x0b, 0xbc,
  0x03, 0xe7, 0xe6, 0x3c, 0x03, 0xae, 0x01, 0x3d, 0x47, 0x7a, 0x26, 0xbe,
  0xb7, 0xc7, 0xd7, 0xbd, 0x8e, 0x85, 0xc4, 0x3d, 0x87, 0xc9, 0x55, 0x3e,
  0x95, 0xc6, 0xad, 0x3d, 0x65, 0x76, 0x5e, 0xbe, 0xae, 0xbb, 0x4c, 0xbe,
  0x74, 0x50, 0x4c, 0xbd, 0x47, 0xd0, 0x66, 0xbe, 0x7c, 0x77, 0x4f, 0x3e,
  0x17, 0x03, 0x83, 0x3e, 0x2a, 0x19, 0x82, 0x3d, 0xc2, 0xb3, 0x79, 0xbb,
  0x90, 0xcc, 0x34, 0x3e, 0xa9, 0x7f, 0x0d, 0xbe, 0x44, 0x52, 0x66, 0x3d,
  0x36, 0x43, 0xb4, 0x3c, 0xe7, 0xe6, 0xff, 0x3d, 0xa9, 0xfa, 0x97, 0x3c,
  0xbc, 0x15, 0xd4, 0xbd, 0x2c, 0x03, 0x50, 0x3e, 0x54, 0x5e, 0x1c, 0xbf,
  0x63, 0x90, 0xa7, 0xbd, 0xd9, 0xf1, 0xf2, 0xbe, 0x2c, 0x08, 0x7c, 0x3d,
  0xe7, 0x50, 0xa9, 0xbe, 0xf9, 0x6f, 0x93, 0x3d, 0xe4, 0x7c, 0x25, 0xbf,
  0x86, 0xb8, 0x66, 0xbe, 0xc1, 0xd7, 0x12, 0x3d, 0x5a, 0x10, 0x8a, 0x3c,
  0x0c, 0xef, 0x2c, 0xbe, 0x57, 0x7c, 0x18, 0x3e, 0xb1, 0xfc, 0xdc, 0x3d,
  0x00, 0x67, 0xba, 0x3b, 0x46, 0x88, 0x1b, 0xbd, 0x6f, 0xdd, 0x2e, 0xbe,
  0x15, 0x6a, 0x22, 0x3b, 0x0d, 0xdb, 0x0c, 0x3e, 0xd1, 0x23, 0xb0, 0xbe,
  0x46, 0x37, 0xa0, 0xbd, 0xa8, 0xe0, 0xa2, 0xbe, 0x76, 0x53, 0xe4, 0x3c,
  0x0e, 0xc4, 0xcd, 0x3c, 0x48, 0x0d, 0x1e, 0xbf, 0x33, 0xb5, 0x33, 0xbe,
  0xad, 0xe1, 0x75, 0xbe, 0x85, 0xda, 0xda, 0xbe, 0x8e, 0x0e, 0x87, 0x3e,
  0x72, 0x5b, 0x1a, 0x3f, 0xc7, 0x28, 0x4d, 0xbd, 0xd7, 0x10, 0xdd, 0x3d,
  0x2a, 0xc2, 0xa6, 0xbe, 0x28, 0x3a, 0x1c, 0x3d, 0x43, 0x0b, 0x07, 0xbe,
  0x73, 0x4d, 0xb4, 0xbe, 0xcc, 0x43, 0x95, 0xbd, 0x16, 0xd5, 0x00, 0xbd,
  0xeb, 0x23, 0x79, 0x3c, 0x1a, 0x85, 0x7f, 0x3e, 0xb8, 0x73, 0xbb, 0xbe,
  0x3f, 0xc0, 0xbe, 0xbe, 0x15, 0xec, 0x80, 0xbe, 0xe6, 0xb4, 0xc9, 0xbe,
  0x5e, 0xd7, 0x89, 0xbe, 0x69, 0x13, 0x5a, 0xbe, 0xac, 0x5d, 0x62, 0x3c,
  0x5e, 0x36, 0x5d, 0x3d, 0xdd, 0x0f, 0x8e, 0xbe, 0x27, 0xe0, 0x48, 0x3c,
  0xf6, 0xe7, 0x20, 0x3d, 0x36, 0x72, 0x64, 0xbe, 0xa7, 0x93, 0xe0, 0xbc,
  0xdb, 0xe7, 0x77, 0xbe, 0x41, 0xb0, 0xe0, 0x3c, 0x17, 0x26, 0x8d, 0x3d,
  0x76, 0xc6, 0x45, 0xbe, 0x8a, 0x7e, 0xcf, 0xbe, 0x3f, 0xe9, 0xcc, 0xbe,
  0x4e, 0x68, 0xaf, 0xbe, 0xe1, 0x27, 0x8a, 0xbe, 0x5d, 0x0d, 0x50, 0xbe,
  0x88, 0xfa, 0x48, 0xbd, 0x77, 0x21, 0x23, 0x3d, 0xb3, 0x97, 0x82, 0xbe,
  0x2e, 0xfa, 0xe0, 0x39, 0x27, 0xb7, 0xc3, 0xbd, 0x14, 0x48, 0xab, 0xbe,
  0x6c, 0x32, 0xeb, 0xbc, 0x4a, 0x51, 0x1c, 0xbf, 0xd1, 0xb2, 0x72, 0x3c,
  0x54, 0x30, 0xcf, 0x3c, 0xc0, 0x70, 0xc6, 0xbe, 0x29, 0xd0, 0xca, 0xbe,
  0x3b, 0x8f, 0xce, 0xbe, 0xed, 0xe5, 0xe8, 0xbe, 0x69, 0x5a, 0xf9, 0xbe,
  0x90, 0x4a, 0x1a, 0xbe, 0x58, 0x50, 0xac, 0x3d, 0xf3, 0xd4, 0x84, 0xbd,
  0x78, 0x6a, 0xdb, 0xbe, 0x2c, 0x5d, 0x3c, 0x3d, 0x03, 0x9f, 0x5c, 0x3d,
  0x0d, 0xc0, 0xde, 0xbe, 0x9e, 0x87, 0x82, 0xbd, 0x5b, 0x87, 0x19, 0xbf,
  0x14, 0x83, 0xf3, 0x3d, 0x2d, 0x2e, 0x57, 0x3c, 0xc1, 0xc7, 0xa6, 0xbe,
  0x66, 0x79, 0x03, 0xbe, 0xec, 0x97, 0x83, 0xbe, 0xbe, 0xc0, 0xcc, 0xbe,
  0xc5, 0x84, 0x27, 0xbd, 0x65, 0x77, 0x44, 0xbd, 0xe2, 0xd3, 0x08, 0x3e,
  0xa8, 0x80, 0x09, 0x3e, 0x0b, 0xa2, 0x7e, 0xbe, 0x07, 0x1e, 0xcb, 0x3d,
  0xb3, 0x32, 0x84, 0xbe, 0xd6, 0x00, 0x35, 0xbe, 0x78, 0x2c, 0xd7, 0xbd,
  0xf1, 0xf0, 0xb2, 0xbe, 0xab, 0x78, 0x65, 0x3d, 0xf9, 0xad, 0x95, 0x3c,
  0x54, 0x92, 0xa7, 0xbe, 0xbc, 0x59, 0xc7, 0x3d, 0x43, 0xbc, 0xeb, 0xbd,
  0x21, 0xbb, 0x1a, 0xbf, 0xc6, 0x81, 0xbb, 0x3e, 0xd9, 0x70, 0x6f, 0x3e,
  0xad, 0x00, 0xcf, 0xbc, 0x7c, 0xe6, 0xfa, 0xbd, 0x2e, 0xfe, 0x76, 0xbe,
  0x32, 0x12, 0x2a, 0x3e, 0x70, 0x90, 0xca, 0x3e, 0x77, 0x2f, 0x94, 0x3c,
  0xe8, 0x49, 0xf6, 0xbc, 0x78, 0xad, 0x93, 0xbd, 0x73, 0xc2, 0x32, 0xbe,
  0xaf, 0x24, 0x44, 0xbe, 0xa7, 0x80, 0x8a, 0xbd, 0x46, 0x9e, 0x4d, 0xbd,
  0xf2, 0x6a, 0x39, 0xbe, 0xbb, 0xd8, 0xbf, 0xbe, 0x55, 0x84, 0xd8, 0xbe,
  0x73, 0x97, 0x20, 0x3e, 0xd2, 0x26, 0xfe, 0x3d, 0xba, 0x86, 0x90, 0xbe,
  0x85, 0xb9, 0x8c, 0x3e, 0x8f, 0x4c, 0x0a, 0x3c, 0x86, 0x1b, 0xc0, 0x3b,
  0xc1, 0xd5, 0xe1, 0xbd, 0xd8, 0x34, 0xd5, 0x3d, 0x81, 0x24, 0x72, 0xbd,
  0xaf, 0xf8, 0xbf, 0xbc, 0x76, 0x8f, 0x52, 0xbe, 0x1c, 0x79, 0xc3, 0x3c,
  0x91, 0x05, 0x0d, 0xbd, 0x94, 0x8c, 0x04, 0x3e, 0xcd, 0x09, 0x3d, 0x3d,
  0x9a, 0x66, 0xf1, 0xbe, 0xc7, 0x99, 0xc9, 0x3d, 0x83, 0x34, 0x30, 0xbd,
  0x41, 0x0a, 0xdd, 0xbd, 0x24, 0xb7, 0x71, 0x3d, 0x90, 0x10, 0x76, 0x3e,
  0x6f, 0xa7, 0x1b, 0x3f, 0xc7, 0xc0, 0x16, 0xbe, 0xc3, 0xd6, 0xeb, 0xbc,
  0x69, 0xd6, 0x37, 0xbd, 0x96, 0x74, 0x82, 0xbd, 0x96, 0x78, 0x75, 0xbe,
  0x92, 0x4c, 0x26, 0xbe, 0xd6, 0x28, 0x0e, 0x3e, 0xd5, 0xc4, 0xb9, 0x3d,
  0x18, 0xdc, 0xbb, 0xbd, 0x5c, 0xb1, 0xa5, 0xbd, 0x3b, 0xaa, 0x14, 0x3e,
  0x63, 0x0f, 0xdc, 0x3b, 0x76, 0xef, 0x68, 0xbe, 0x6c, 0xc3, 0xc2, 0x3d,
  0xe2, 0xc8, 0x4d, 0x3d, 0x98, 0x20, 0x1a, 0x3f, 0x2b, 0xfc, 0x87, 0xbc,
  0xb6, 0xee, 0xd2, 0x3b, 0x0a, 0x75, 0x82, 0x3e, 0x71, 0x5a, 0xe3, 0x3d,
  0x27, 0xf5, 0x39, 0xbe, 0x6c, 0xa1, 0x84, 0x3e, 0xc4, 0xc2, 0xa9, 0xbd,
  0xaa, 0x18, 0xae, 0x3d, 0xe4, 0x81, 0x76, 0x3c, 0xc8, 0x78, 0x08, 0xbe,
  0x28, 0x9e, 0x97, 0x3c, 0xef, 0xa9, 0x25, 0x3d, 0xe7, 0x7d, 0xdb, 0xbd,
  0x80, 0x24, 0xd6, 0x3e, 0x5b, 0xd7, 0x46, 0xbd, 0x80, 0xf1, 0xe6, 0x3d,
  0x85, 0xd5, 0x23, 0xbe, 0x61, 0xd7, 0xf1, 0x3c, 0x67, 0x17, 0x15, 0x3c,
  0xb2, 0x5d, 0xe7, 0x3c, 0xd0, 0xdd, 0x8b, 0xbd, 0xf1, 0x6c, 0xcc, 0x3c,
  0xff, 0x18, 0xc2, 0xbd, 0x36, 0x87, 0x74, 0x3d, 0x0e, 0x83, 0xf3, 0xb9,
  0xe2, 0x09, 0x57, 0x3d, 0x26, 0x5d, 0xb5, 0x3e, 0x77, 0xfe, 0xf7, 0x3b,
  0xb7, 0x2c, 0xb8, 0xbc, 0x60, 0xc8, 0xd6, 0x3d, 0x08, 0x59, 0x0f, 0xbd,
  0xa8, 0x0d, 0xca, 0x3e, 0xcf, 0x6e, 0x4f, 0xbb, 0x7d, 0xa3, 0x02, 0x3c,
  0xf1, 0x3f, 0xaf, 0x3b, 0xb7, 0x25, 0x23, 0xbb, 0xe5, 0x92, 0x66, 0xbe,
  0xe7, 0xf4, 0x30, 0x3d, 0xc8, 0x89, 0x97, 0xbe, 0x11, 0x4f, 0x63, 0xbd,
  0x13, 0x1f, 0xf5, 0xbd, 0x2e, 0x03, 0x69, 0xbd, 0x7b, 0xae, 0x52, 0x3d,
  0xe7, 0x99, 0xbb, 0xbe, 0x20, 0xf1, 0x1d, 0xbe, 0x8a, 0x30, 0x6b, 0xbd,
  0xd3, 0x2d, 0xcd, 0x3d, 0x25, 0xfb, 0xec, 0x3e, 0x29, 0x8d, 0x78, 0xbd,
  0xdc, 0x56, 0xb9, 0xb8, 0xe5, 0xfb, 0xfc, 0x3d, 0xa0, 0xb1, 0x31, 0x3d,
  0x9d, 0x1b, 0x82, 0xbe, 0xaf, 0xf0, 0x35, 0xbe, 0xaf, 0x9b, 0xa5, 0xbd,
  0xa1, 0x5e, 0xa6, 0x3d, 0x3a, 0xe7, 0x9a, 0xbc, 0x7e, 0xd4, 0x58, 0xbe,
  0xaf, 0x34, 0x6c, 0xbe, 0x5e, 0x64, 0x3f, 0x3d, 0x37, 0x86, 0x67, 0x3d,
  0xd0, 0xd9, 0x29, 0x3e, 0xe3, 0x17, 0x90, 0xbe, 0x66, 0x95, 0x97, 0xbe,
  0x1b, 0x5f, 0x98, 0x3f, 0x2b, 0x81, 0xa2, 0xbe, 0x39, 0x44, 0x91, 0x3e,
  0xbf, 0x7e, 0xa4, 0xbe, 0xa2, 0xd0, 0xda, 0x3e, 0x59, 0xe5, 0xa8, 0x3d,
  0x52, 0x24, 0x24, 0x3e, 0x9e, 0xc5, 0xf0, 0xbd, 0x91, 0xb8, 0xe9, 0x3d,
  0xde, 0xcf, 0xaa, 0x3d, 0x72, 0xaa, 0x7d, 0xbd, 0xda, 0xf4, 0x0b, 0xbe,
  0xa8, 0xc3, 0x13, 0xbe, 0x4f, 0x98, 0x2b, 0xbe, 0x6c, 0x5d, 0xc0, 0xbd,
  0x41, 0xa2, 0x9a, 0xbe, 0xd3, 0xfa, 0x1d, 0x40, 0x68, 0x99, 0x28, 0xbe,
  0x7a, 0xcb, 0x81, 0x3e, 0x1b, 0xdd, 0x53, 0xbd, 0x4a, 0x98, 0x3e, 0xbe,
  0x24, 0xd5, 0x9f, 0x3e, 0x60, 0x64, 0x20, 0xbc, 0x09, 0x38, 0x13, 0xbe,
  0x2b, 0x27, 0xb7, 0x3b, 0xc1, 0xdf, 0x13, 0x3e, 0x45, 0x31, 0xe0, 0x3d,
  0x4c, 0x51, 0xb6, 0xbe, 0xdf, 0x74, 0x9e, 0xbe, 0xeb, 0x49, 0xb3, 0xbc,
  0x48, 0x4d, 0x18, 0x3d, 0x48, 0x00, 0x58, 0xbe, 0xa6, 0xba, 0x2b, 0x40,
  0x47, 0x58, 0x17, 0xbe, 0x23, 0x78, 0x61, 0xbd, 0x6f, 0xd9, 0x0a, 0xbf,
  0x17, 0x1f, 0x03, 0xbe, 0x19, 0xd2, 0x95, 0x3e, 0xee, 0xc6, 0xff, 0xbe,
  0x88, 0x23, 0x49, 0x3d, 0x6d, 0x47, 0xbc, 0xbe, 0x2c, 0xc5, 0x4e, 0xbb,
  0x28, 0xa3, 0xc2, 0x3c, 0xb9, 0xae, 0xc7, 0xbe, 0xfd, 0x44, 0x6d, 0xbe,
  0x29, 0xe0, 0x59, 0x3d, 0x21, 0x19, 0xd3, 0xbd, 0x75, 0x25, 0x16, 0xbd,
  0xe2, 0x4e, 0x13, 0x40, 0xdd, 0x84, 0x4d, 0xbd, 0xfe, 0xd3, 0x18, 0xbd,
  0x59, 0xdc, 0x1e, 0xbf, 0x21, 0x62, 0x4d, 0xbd, 0xb0, 0x6c, 0x56, 0xbc,
  0x00, 0x56, 0x41, 0x3c, 0xfa, 0x37, 0x70, 0xbe, 0x66, 0xf9, 0x25, 0xbe,
  0xda, 0x0f, 0x66, 0xbe, 0x53, 0x65, 0x39, 0xbe, 0x7d, 0x45, 0xa1, 0xbe,
  0x97, 0xbc, 0xdd, 0xbd, 0x22, 0x8d, 0x44, 0x3c, 0x7d, 0xff, 0x86, 0xbc,
  0x62, 0x3b, 0xc0, 0xbd, 0xd1, 0x25, 0x2b, 0x40, 0xea, 0xc3, 0x12, 0xbb,
  0x05, 0xa7, 0xd1, 0xbd, 0x78, 0x67, 0xed, 0xbe, 0x73, 0x13, 0xaa, 0xbd,
  0xf7, 0x79, 0x6b, 0xbe, 0x05, 0x9a, 0x0c, 0x3e, 0x61, 0x10, 0x1c, 0xbe,
  0x26, 0x60, 0x40, 0xbb, 0xf9, 0xbc, 0x15, 0xbe, 0x58, 0xfe, 0x7e, 0xbe,
  0x63, 0x11, 0x12, 0xbe, 0xdb, 0xa2, 0x88, 0x3d, 0xe4, 0x17, 0x82, 0xbd,
  0x9b, 0x7b, 0xa1, 0xbd, 0x92, 0xa0, 0xc8, 0xbe, 0xe8, 0x86, 0x22, 0x40,
  0x58, 0x17, 0xc0, 0xbd, 0x60, 0x2b, 0xbb, 0x3d, 0xf4, 0x9b, 0x1d, 0xbf,
  0x0b, 0xd4, 0xc0, 0xbd, 0x91, 0x84, 0x63, 0x3e, 0x93, 0x11, 0x7b, 0x3e,
  0xe7, 0xb6, 0xbd, 0xbd, 0x80, 0x63, 0x14, 0x3e, 0x74, 0xf3, 0x58, 0x3c,
  0x1d, 0x1b, 0x27, 0xbe, 0x7c, 0x52, 0x89, 0xbe, 0xd2, 0x0f, 0xb7, 0x3e,
  0x0e, 0x8d, 0xaa, 0xbd, 0x73, 0xb3, 0xa6, 0xbe, 0xa2, 0x46, 0xd5, 0xbe,
  0x17, 0x75, 0xb9, 0x3f, 0x94, 0x0e, 0x9b, 0xbd, 0x98, 0x1a, 0xb4, 0xbd,
  0x0b, 0x85, 0x29, 0xbe, 0x30, 0x96, 0x4a, 0xbe, 0x98, 0x0d, 0x6f, 0xbd,
  0x93, 0xd9, 0x47, 0x3e, 0x0a, 0xf4, 0x1e, 0x3e, 0xfc, 0xe7, 0x57, 0x3e,
  0xd4, 0xb8, 0xd3, 0xbc, 0xaf, 0x5e, 0x30, 0x3d, 0xe3, 0x1b, 0xd5, 0xbe,
  0x02, 0xc7, 0x86, 0xbe, 0xa3, 0x24, 0xc1, 0x3b, 0xf1, 0xf7, 0x13, 0xbf,
  0xc9, 0x60, 0x20, 0xbf, 0xfd, 0x40, 0x12, 0xbd, 0x02, 0xa0, 0x4f, 0x3c,
  0x70, 0xe4, 0x93, 0x3c, 0x7c, 0xa7, 0x05, 0x3e, 0xcd, 0x51, 0x92, 0xbd,
  0xe8, 0x04, 0x84, 0x3e, 0xe3, 0x7e, 0x20, 0x3e, 0x9e, 0x66, 0x8e, 0x3e,
  0x2c, 0x59, 0xfd, 0x3d, 0x78, 0x10, 0xf7, 0x3d, 0x49, 0x03, 0x16, 0x3e,
  0xc5, 0xe9, 0x35, 0xbd, 0x91, 0x96, 0x12, 0x3e, 0x44, 0x61, 0x3f, 0xbd,
  0xe1, 0x93, 0x49, 0xbd, 0x66, 0x71, 0xf6, 0xbe, 0x62, 0xb6, 0x42, 0xbe,
  0xe3, 0xd1, 0x91, 0xbd, 0x4e, 0xe0, 0xfb, 0xbc, 0xa3, 0xbc, 0x96, 0xbd,
  0xbd, 0x53, 0x4b, 0x3d, 0x32, 0x1f, 0xce, 0x3e, 0xdf, 0xaf, 0x82, 0x3e,
  0x0d, 0xc7, 0xb6, 0x3e, 0x80, 0x7d, 0x6f, 0xbe, 0x94, 0x96, 0x88, 0x3d,
  0xbd, 0x72, 0xc0, 0x3d, 0xdc, 0x55, 0x8c, 0xbd, 0x38, 0xb6, 0xbc, 0xbb,
  0x3c, 0x15, 0x6c, 0x3d, 0x81, 0xb5, 0xb7, 0xbc, 0x76, 0x65, 0x70, 0xbe,
  0x6c, 0x8f, 0x5f, 0xbe, 0x8b, 0xdb, 0x97, 0xbd, 0x57, 0x17, 0xee, 0xbd,
  0xff, 0xdf, 0x5d, 0xbd, 0xfe, 0xac, 0x11, 0xbd, 0xd7, 0xb5, 0x9c, 0x3e,
  0x32, 0xc8, 0x42, 0x3e, 0xab, 0x1d, 0x34, 0x3e, 0x6b, 0xd3, 0x09, 0xbe,
  0x32, 0x85, 0x9d, 0xbe, 0x4a, 0xd1, 0xd0, 0xbd, 0x01, 0x03, 0x3c, 0xbc,
  0x32, 0x94, 0x4e, 0xbd, 0x20, 0xa8, 0xc6, 0x3a, 0xc0, 0xef, 0xfa, 0xbb,
  0x95, 0x05, 0xb8, 0xbd, 0x56, 0xc5, 0xa7, 0xbd, 0xc5, 0x33, 0x77, 0xbd,
  0xac, 0x0d, 0xd6, 0xbb, 0x0c, 0x63, 0x26, 0xbd, 0x8d, 0x4a, 0xf2, 0x3c,
  0x0a, 0xec, 0x1d, 0x3e, 0x9f, 0xb4, 0x18, 0x3e, 0x15, 0x46, 0x3b, 0xbc,
  0x86, 0x32, 0xef, 0xbd, 0x57, 0xc3, 0x86, 0xbe, 0xad, 0x0c, 0xde, 0x3c,
  0xd2, 0xb2, 0x8c, 0xbd, 0xe3, 0x22, 0xe1, 0xbc, 0x09, 0x08, 0x26, 0xbe,
  0x2a, 0xbe, 0xdf, 0xbc, 0xe3, 0x3c, 0xf4, 0xbe, 0x55, 0xb1, 0x75, 0x3c,
  0xd7, 0xe0, 0x45, 0xbd, 0xe5, 0x84, 0x4c, 0x3e, 0x30, 0x6c, 0xdd, 0xbd,
  0x55, 0x16, 0x53, 0x3d, 0x3d, 0xca, 0xb2, 0x3e, 0xa0, 0x70, 0x91, 0x3e,
  0x84, 0xcb, 0xb1, 0x3d, 0x4c, 0x73, 0x41, 0xbe, 0x0e, 0x4f, 0x80, 0xbe,
  0x8c, 0xbf, 0x9d, 0xbc, 0x10, 0x3a, 0xbc, 0xbc, 0x41, 0xc9, 0x2a, 0xbc,
  0x0c, 0xdc, 0x07, 0xbe, 0x1c, 0x3d, 0x7d, 0xbd, 0x96, 0x69, 0xe1, 0xbe,
  0xa5, 0xee, 0x9f, 0xbe, 0xe9, 0xdc, 0xfd, 0xbb, 0xd7, 0xad, 0xcf, 0xbd,
  0x7c, 0x66, 0x33, 0xbd, 0x2b, 0xd8, 0x0f, 0xbc, 0xb5, 0xe7, 0x62, 0x3e,
  0xaa, 0xfa, 0xa1, 0x3e, 0x4f, 0xe1, 0x26, 0x3e, 0x10, 0xcf, 0x15, 0xbe,
  0xb6, 0x97, 0xd3, 0xbd, 0x60, 0xfb, 0xb1, 0xbd, 0xf1, 0x85, 0xa4, 0x3e,
  0x24, 0x99, 0x6b, 0x3e, 0xe2, 0xc7, 0x7f, 0xbd, 0xb8, 0x04, 0x8e, 0xbd,
  0xa1, 0x0e, 0xf7, 0xbe, 0xc1, 0x3e, 0x44, 0xbe, 0x35, 0x9b, 0x07, 0xbd,
  0xad, 0x22, 0x0a, 0xbe, 0xa3, 0xec, 0x13, 0x3d, 0x78, 0x93, 0x22, 0x3e,
  0xa5, 0x19, 0xc8, 0x3d, 0x4f, 0x93, 0x9f, 0x3e, 0x3c, 0xcc, 0x05, 0xbd,
  0xa1, 0xb9, 0x32, 0xbe, 0x7f, 0x47, 0x75, 0x3e, 0x7e, 0xf8, 0x21, 0x3e,
  0xbd, 0x46, 0x2a, 0x3d, 0x62, 0xfd, 0xff, 0xff, 0x10, 0x00, 0x00, 0x00,
  0x07, 0x00, 0x00, 0x00, 0x14, 0x00, 0x00, 0x00, 0x2c, 0x00, 0x00, 0x00,
  0x02, 0x00, 0x00, 0x00, 0x10, 0x00, 0x00, 0x00, 0x70, 0x00, 0x00, 0x00,
  0x17, 0x00, 0x00, 0x00, 0x73, 0x65, 0x71, 0x75, 0x65, 0x6e, 0x74, 0x69,
  0x61, 0x6c, 0x2f, 0x64, 0x65, 0x6e, 0x73, 0x65, 0x2f, 0x4d, 0x61, 0x74,
  0x4d, 0x75, 0x6c, 0x00, 0xcc, 0xfc, 0xff, 0xff, 0xd6, 0xfd, 0xff, 0xff,
  0x04, 0x00, 0x00, 0x00, 0x08, 0x00, 0x00, 0x00, 0xff, 0xff, 0xff, 0xff,
  0x70, 0x00, 0x00, 0x00, 0x00, 0x00, 0x0e, 0x00, 0x18, 0x00, 0x08, 0x00,
  0x07, 0x00, 0x0c, 0x00, 0x10, 0x00, 0x14, 0x00, 0x0e, 0x00, 0x00, 0x00,
  0x00, 0x00, 0x00, 0x02, 0x10, 0x00, 0x00, 0x00, 0x06, 0x00, 0x00, 0x00,
  0x10, 0x00, 0x00, 0x00, 0x2c, 0x00, 0x00, 0x00, 0x01, 0x00, 0x00, 0x00,
  0x02, 0x00, 0x00, 0x00, 0x18, 0x00, 0x00, 0x00, 0x73, 0x65, 0x71, 0x75,
  0x65, 0x6e, 0x74, 0x69, 0x61, 0x6c, 0x2f, 0x66, 0x6c, 0x61, 0x74, 0x74,
  0x65, 0x6e, 0x2f, 0x43, 0x6f, 0x6e, 0x73, 0x74, 0x00, 0x00, 0x00, 0x00,
  0x34, 0xfd, 0xff, 0xff, 0x3e, 0xfe, 0xff, 0xff, 0x04, 0x00, 0x00, 0x00,
  0x10, 0x00, 0x00, 0x00, 0xe2, 0xee, 0x12, 0xc0, 0x9d, 0x12, 0xbd, 0xbf,
  0x43, 0x72, 0x4c, 0xc0, 0x68, 0x85, 0x53, 0x40, 0x26, 0xfe, 0xff, 0xff,
  0x10, 0x00, 0x00, 0x00, 0x05, 0x00, 0x00, 0x00, 0x10, 0x00, 0x00, 0x00,
  0x44, 0x00, 0x00, 0x00, 0x01, 0x00, 0x00, 0x00, 0x04, 0x00, 0x00, 0x00,
  0x32, 0x00, 0x00, 0x00, 0x73, 0x65, 0x71, 0x75, 0x65, 0x6e, 0x74, 0x69,
  0x61, 0x6c, 0x2f, 0x64, 0x65, 0x6e, 0x73, 0x65, 0x5f, 0x31, 0x2f, 0x42,
  0x69, 0x61, 0x73, 0x41, 0x64, 0x64, 0x2f, 0x52, 0x65, 0x61, 0x64, 0x56,
  0x61, 0x72, 0x69, 0x61, 0x62, 0x6c, 0x65, 0x4f, 0x70, 0x2f, 0x72, 0x65,
  0x73, 0x6f, 0x75, 0x72, 0x63, 0x65, 0x00, 0x00, 0xa8, 0xfd, 0xff, 0xff,
  0xb2, 0xfe, 0xff, 0xff, 0x04, 0x00, 0x00, 0x00, 0x40, 0x00, 0x00, 0x00,
  0xd1, 0x6d, 0x2d, 0xbf, 0x04, 0x0a, 0x5e, 0xbf, 0x78, 0x97, 0x1d, 0x40,
  0x23, 0x4a, 0xbc, 0xbe, 0x46, 0xc2, 0xc4, 0xbf, 0x03, 0x57, 0x66, 0x3f,
  0xac, 0xa6, 0x09, 0xbf, 0xcf, 0x50, 0x39, 0xbf, 0xfa, 0xf9, 0xcb, 0xbe,
  0xfe, 0x92, 0xaa, 0xbe, 0x9b, 0xdb, 0x09, 0xbf, 0x5d, 0x0a, 0x65, 0xbf,
  0x50, 0x18, 0xcc, 0xbe, 0x39, 0xa4, 0xa5, 0xbe, 0x85, 0x70, 0x03, 0x40,
  0xb4, 0x61, 0x85, 0xbf, 0xca, 0xfe, 0xff, 0xff, 0x10, 0x00, 0x00, 0x00,
  0x04, 0x00, 0x00, 0x00, 0x10, 0x00, 0x00, 0x00, 0x44, 0x00, 0x00, 0x00,
  0x01, 0x00, 0x00, 0x00, 0x10, 0x00, 0x00, 0x00, 0x30, 0x00, 0x00, 0x00,
  0x73, 0x65, 0x71, 0x75, 0x65, 0x6e, 0x74, 0x69, 0x61, 0x6c, 0x2f, 0x64,
  0x65, 0x6e, 0x73, 0x65, 0x2f, 0x42, 0x69, 0x61, 0x73, 0x41, 0x64, 0x64,
  0x2f, 0x52, 0x65, 0x61, 0x64, 0x56, 0x61, 0x72, 0x69, 0x61, 0x62, 0x6c,
  0x65, 0x4f, 0x70, 0x2f, 0x72, 0x65, 0x73, 0x6f, 0x75, 0x72, 0x63, 0x65,
  0x00, 0x00, 0x00, 0x00, 0x4c, 0xfe, 0xff, 0xff, 0x56, 0xff, 0xff, 0xff,
  0x04, 0x00, 0x00, 0x00, 0x40, 0x00, 0x00, 0x00, 0xb2, 0x2a, 0x59, 0xbe,
  0xb3, 0xc0, 0xa5, 0x3e, 0x04, 0xe3, 0x59, 0xbe, 0xa6, 0xf4, 0x45, 0x3d,
  0x4f, 0x55, 0xf1, 0x40, 0x6a, 0x11, 0xbb, 0xbe, 0xaa, 0x70, 0xce, 0xbf,
  0xc5, 0x91, 0x9a, 0xbf, 0x6b, 0xa4, 0x06, 0xc0, 0xb0, 0xc8, 0x9a, 0xbf,
  0x4c, 0x81, 0xd1, 0xbf, 0x3d, 0xfd, 0x8a, 0xbf, 0x0e, 0x8c, 0xc9, 0xbf,
  0x67, 0x3d, 0x9c, 0xbf, 0xd8, 0x9d, 0x36, 0xbf, 0xb7, 0x77, 0x96, 0xbf,
  0x6e, 0xff, 0xff, 0xff, 0x10, 0x00, 0x00, 0x00, 0x03, 0x00, 0x00, 0x00,
  0x10, 0x00, 0x00, 0x00, 0x48, 0x00, 0x00, 0x00, 0x01, 0x00, 0x00, 0x00,
  0x10, 0x00, 0x00, 0x00, 0x33, 0x00, 0x00, 0x00, 0x73, 0x65, 0x71, 0x75,
  0x65, 0x6e, 0x74, 0x69, 0x61, 0x6c, 0x2f, 0x63, 0x6f, 0x6e, 0x76, 0x32,
  0x64, 0x5f, 0x31, 0x2f, 0x42, 0x69, 0x61, 0x73, 0x41, 0x64, 0x64, 0x2f,
  0x52, 0x65, 0x61, 0x64, 0x56, 0x61, 0x72, 0x69, 0x61, 0x62, 0x6c, 0x65,
  0x4f, 0x70, 0x2f, 0x72, 0x65, 0x73, 0x6f, 0x75, 0x72, 0x63, 0x65, 0x00,
  0x04, 0x00, 0x06, 0x00, 0x04, 0x00, 0x00, 0x00, 0x00, 0x00, 0x06, 0x00,
  0x08, 0x00, 0x04, 0x00, 0x06, 0x00, 0x00, 0x00, 0x04, 0x00, 0x00, 0x00,
  0x20, 0x00, 0x00, 0x00, 0xb3, 0x07, 0x24, 0x3c, 0x86, 0x67, 0xf9, 0xbf,
  0x09, 0xe7, 0x0b, 0xc0, 0xed, 0xf5, 0x3f, 0xc0, 0xdf, 0x47, 0xe2, 0xbf,
  0x3c, 0xb1, 0x05, 0xc0, 0x31, 0xa8, 0xc8, 0xbf, 0x2d, 0x86, 0xc9, 0xbf,
  0x00, 0x00, 0x0e, 0x00, 0x14, 0x00, 0x04, 0x00, 0x00, 0x00, 0x08, 0x00,
  0x0c, 0x00, 0x10, 0x00, 0x0e, 0x00, 0x00, 0x00, 0x10, 0x00, 0x00, 0x00,
  0x02, 0x00, 0x00, 0x00, 0x10, 0x00, 0x00, 0x00, 0x44, 0x00, 0x00, 0x00,
  0x01, 0x00, 0x00, 0x00, 0x08, 0x00, 0x00, 0x00, 0x31, 0x00, 0x00, 0x00,
  0x73, 0x65, 0x71, 0x75, 0x65, 0x6e, 0x74, 0x69, 0x61, 0x6c, 0x2f, 0x63,
  0x6f, 0x6e, 0x76, 0x32, 0x64, 0x2f, 0x42, 0x69, 0x61, 0x73, 0x41, 0x64,
  0x64, 0x2f, 0x52, 0x65, 0x61, 0x64, 0x56, 0x61, 0x72, 0x69, 0x61, 0x62,
  0x6c, 0x65, 0x4f, 0x70, 0x2f, 0x72, 0x65, 0x73, 0x6f, 0x75, 0x72, 0x63,
  0x65, 0x00, 0x00, 0x00, 0x90, 0xff, 0xff, 0xff, 0x14, 0x00, 0x18, 0x00,
  0x04, 0x00, 0x00, 0x00, 0x08, 0x00, 0x0c, 0x00, 0x10, 0x00, 0x00, 0x00,
  0x00, 0x00, 0x14, 0x00, 0x14, 0x00, 0x00, 0x00, 0x14, 0x00, 0x00, 0x00,
  0x01, 0x00, 0x00, 0x00, 0x20, 0x00, 0x00, 0x00, 0x44, 0x00, 0x00, 0x00,
  0x2c, 0x00, 0x00, 0x00, 0x04, 0x00, 0x00, 0x00, 0x01, 0x00, 0x00, 0x00,
  0x40, 0x00, 0x00, 0x00, 0x03, 0x00, 0x00, 0x00, 0x01, 0x00, 0x00, 0x00,
  0x0c, 0x00, 0x00, 0x00, 0x63, 0x6f, 0x6e, 0x76, 0x32, 0x64, 0x5f, 0x69,
  0x6e, 0x70, 0x75, 0x74, 0x00, 0x00, 0x00, 0x00, 0x04, 0x00, 0x00, 0x00,
  0xff, 0xff, 0xff, 0xff, 0x40, 0x00, 0x00, 0x00, 0x03, 0x00, 0x00, 0x00,
  0x01, 0x00, 0x00, 0x00, 0xfc, 0xff, 0xff, 0xff, 0x04, 0x00, 0x04, 0x00,
  0x04, 0x00, 0x00, 0x00
};
unsigned int model_tflite_len = 13120;

// const unsigned char g_magic_wand_model_data[] DATA_ALIGN_ATTRIBUTE = {
//   // Paste the data of the char array in `src/model.cc` here
// };

// unsigned int model_tflite_len = ;// Fill the int in `src/model.cc` here